<pad>	0
<unk>	0
<s>	0
</s>	0
▁t	-0
he	-1
▁a	-2
in	-3
ou	-4
▁w	-5
re	-6
▁s	-7
is	-8
▁I	-9
ha	-10
on	-11
▁m	-12
▁the	-13
▁to	-14
er	-15
▁d	-16
▁c	-17
ed	-18
▁b	-19
▁S	-20
▁y	-21
an	-22
▁l	-23
am	-24
▁f	-25
▁T	-26
▁you	-27
or	-28
en	-29
ing	-30
om	-31
it	-32
ami	-33
ll	-34
▁Sami	-35
▁p	-36
ay	-37
▁h	-38
es	-39
as	-40
▁is	-41
ar	-42
▁o	-43
▁n	-44
ve	-45
▁ha	-46
▁in	-47
at	-48
hat	-49
▁g	-50
▁W	-51
▁an	-52
ot	-53
▁he	-54
et	-55
ow	-56
▁of	-57
ic	-58
le	-59
▁was	-60
im	-61
us	-62
▁L	-63
▁be	-64
id	-65
▁li	-66
▁H	-67
▁th	-68
▁The	-69
la	-70
▁do	-71
▁e	-72
ad	-73
ld	-74
▁me	-75
ver	-76
▁re	-77
oo	-78
▁for	-79
ke	-80
▁M	-81
▁on	-82
▁Lay	-83
▁Layla	-84
▁that	-85
al	-86
▁Tom	-87
▁st	-88
ent	-89
▁Y	-90
gh	-91
ri	-92
▁and	-93
her	-94
se	-95
ac	-96
▁A	-97
il	-98
▁D	-99
▁He	-100
▁You	-101
ion	-102
▁have	-103
▁are	-104
▁his	-105
▁k	-106
ant	-107
st	-108
▁ne	-109
ill	-110
un	-111
▁we	-112
ter	-113
ome	-114
ith	-115
▁it	-116
▁F	-117
ir	-118
ly	-119
▁with	-120
▁my	-121
out	-122
ut	-123
▁go	-124
▁not	-125
ght	-126
ro	-127
▁your	-128
fe	-129
all	-130
ch	-131
pp	-132
▁this	-133
▁want	-134
▁at	-135
ur	-136
very	-137
▁can	-138
ould	-139
ce	-140
one	-141
▁kn	-142
▁him	-143
ook	-144
▁C	-145
ho	-146
ra	-147
▁te	-148
▁She	-149
▁It	-150
▁did	-151
▁wor	-152
▁se	-153
▁as	-154
▁We	-155
end	-156
▁know	-157
▁her	-158
ct	-159
▁don	-160
▁like	-161
ge	-162
▁sp	-163
adil	-164
▁What	-165
▁Fadil	-166
▁lo	-167
ust	-168
ak	-169
▁fr	-170
ore	-171
ist	-172
ry	-173
up	-174
th	-175
▁has	-176
han	-177
▁B	-178
▁ab	-179
our	-180
▁Th	-181
▁le	-182
▁E	-183
▁life	-184
ol	-185
est	-186
▁j	-187
op	-188
▁Do	-189
▁al	-190
▁This	-191
ake	-192
if	-193
▁from	-194
▁com	-195
▁will	-196
ice	-197
▁sh	-198
nd	-199
ul	-200
▁what	-201
ood	-202
red	-203
ked	-204
▁us	-205
▁cl	-206
here	-207
▁all	-208
ation	-209
ame	-210
▁de	-211
▁had	-212
▁P	-213
▁one	-214
▁r	-215
▁J	-216
▁My	-217
▁up	-218
ink	-219
qu	-220
▁ex	-221
▁N	-222
▁su	-223
art	-224
▁so	-225
▁G	-226
ind	-227
▁any	-228
ble	-229
os	-230
ary	-231
▁un	-232
▁here	-233
ive	-234
▁out	-235
▁about	-236
ase	-237
hy	-238
ig	-239
ime	-240
▁very	-241
ate	-242
ved	-243
ast	-244
▁pl	-245
and	-246
day	-247
ong	-248
ber	-249
other	-250
▁con	-251
ain	-252
▁man	-253
▁didn	-254
▁sa	-255
▁v	-256
▁look	-257
ren	-258
ess	-259
ight	-260
el	-261
ish	-262
ally	-263
dy	-264
▁too	-265
▁time	-266
▁tr	-267
der	-268
▁going	-269
ie	-270
res	-271
▁see	-272
▁no	-273
hen	-274
ck	-275
▁happ	-276
ard	-277
▁by	-278
ous	-279
hi	-280
▁get	-281
▁think	-282
ave	-283
ouse	-284
lease	-285
▁does	-286
▁need	-287
pt	-288
▁am	-289
▁ar	-290
▁How	-291
▁or	-292
▁spe	-293
hing	-294
ang	-295
ays	-296
▁int	-297
▁house	-298
▁teac	-299
▁Is	-300
ity	-301
get	-302
ort	-303
▁work	-304
ack	-305
ves	-306
riend	-307
ass	-308
▁there	-309
▁car	-310
um	-311
▁but	-312
ound	-313
▁Mary	-314
▁co	-315
▁home	-316
ap	-317
etter	-318
▁Don	-319
▁she	-320
▁Where	-321
ep	-322
lp	-323
▁pro	-324
ers	-325
ide	-326
▁They	-327
▁qu	-328
▁who	-329
▁were	-330
▁ag	-331
▁book	-332
▁every	-333
ear	-334
▁That	-335
▁Why	-336
▁been	-337
alk	-338
oney	-339
▁teacher	-340
ite	-341
▁There	-342
▁some	-343
▁than	-344
▁should	-345
▁help	-346
▁come	-347
▁just	-348
▁speak	-349
▁went	-350
lf	-351
▁"	-352
▁O	-353
▁ro	-354
▁dog	-355
▁money	-356
row	-357
ven	-358
▁pr	-359
ather	-360
▁friend	-361
▁love	-362
age	-363
ect	-364
▁wr	-365
▁stu	-366
▁never	-367
▁would	-368
▁ri	-369
bo	-370
▁fe	-371
▁pe	-372
ool	-373
ian	-374
ree	-375
hed	-376
▁mo	-377
▁good	-378
ng	-379
▁No	-380
▁new	-381
▁tell	-382
thing	-383
▁more	-384
ick	-385
▁comp	-386
em	-387
ait	-388
▁wat	-389
ople	-390
▁af	-391
▁bec	-392
▁say	-393
▁call	-394
nt	-395
▁wanted	-396
▁ke	-397
▁back	-398
▁read	-399
▁right	-400
ought	-401
▁our	-402
▁tw	-403
▁got	-404
▁play	-405
ving	-406
▁now	-407
▁off	-408
ine	-409
▁br	-410
▁forget	-411
ther	-412
▁day	-413
▁people	-414
▁Can	-415
▁Let	-416
itt	-417
▁en	-418
cc	-419
chool	-420
▁could	-421
omet	-422
▁exp	-423
▁eat	-424
▁must	-425
oy	-426
body	-427
▁wait	-428
▁doesn	-429
▁under	-430
▁sm	-431
▁thing	-432
iss	-433
ict	-434
urn	-435
▁im	-436
▁lot	-437
▁take	-438
ress	-439
▁bus	-440
▁di	-441
▁app	-442
▁talk	-443
ag	-444
lim	-445
▁told	-446
▁if	-447
self	-448
▁happen	-449
ci	-450
own	-451
ure	-452
▁mu	-453
▁into	-454
▁school	-455
▁bu	-456
▁really	-457
au	-458
arn	-459
▁only	-460
▁pol	-461
ia	-462
ade	-463
ried	-464
▁ad	-465
ence	-466
ount	-467
reat	-468
▁pre	-469
orrow	-470
▁many	-471
▁Please	-472
hild	-473
ways	-474
▁bel	-475
▁year	-476
▁dr	-477
ft	-478
are	-479
▁Mus	-480
▁much	-481
▁again	-482
▁somet	-483
ab	-484
mer	-485
lish	-486
▁Who	-487
▁rem	-488
▁when	-489
ose	-490
▁Eng	-491
▁chan	-492
▁start	-493
▁always	-494
iz	-495
use	-496
▁sw	-497
▁Muslim	-498
act	-499
▁father	-500
air	-501
rab	-502
▁po	-503
▁tra	-504
▁long	-505
▁Are	-506
▁won	-507
▁sent	-508
▁child	-509
▁K	-510
▁two	-511
▁other	-512
▁said	-513
▁them	-514
wn	-515
enn	-516
ough	-517
▁dis	-518
▁how	-519
▁made	-520
▁they	-521
▁English	-522
ies	-523
angu	-524
▁learn	-525
ctor	-526
▁down	-527
▁took	-528
▁something	-529
ob	-530
orn	-531
▁Arab	-532
ell	-533
▁sho	-534
▁live	-535
▁room	-536
ans	-537
▁langu	-538
ty	-539
▁old	-540
▁left	-541
fore	-542
ment	-543
▁If	-544
▁St	-545
▁door	-546
apan	-547
▁res	-548
▁belie	-549
▁before	-550
▁letter	-551
ult	-552
▁sle	-553
▁Japan	-554
ue	-555
▁last	-556
▁their	-557
▁where	-558
▁op	-559
▁came	-560
▁police	-561
port	-562
▁isn	-563
ach	-564
ail	-565
▁When	-566
ated	-567
▁Did	-568
▁way	-569
ester	-570
ise	-571
kes	-572
▁Al	-573
▁cat	-574
▁asked	-575
."	-576
be	-577
▁Go	-578
▁Every	-579
▁Arabic	-580
ew	-581
▁R	-582
ger	-583
▁bl	-584
ance	-585
ital	-586
▁sha	-587
▁make	-588
▁today	-589
▁please	-590
▁friends	-591
▁har	-592
▁still	-593
able	-594
▁mar	-595
▁tom	-596
▁likes	-597
esterday	-598
▁underst	-599
▁anything	-600
xt	-601
▁gir	-602
▁stud	-603
▁well	-604
▁after	-605
▁sc	-606
▁May	-607
▁des	-608
▁name	-609
▁happy	-610
▁doctor	-611
▁mother	-612
ich	-613
▁Ch	-614
▁wom	-615
▁hand	-616
▁miss	-617
▁better	-618
ace	-619
igh	-620
ost	-621
▁ra	-622
ause	-623
erber	-624
▁att	-625
▁fin	-626
▁part	-627
▁class	-628
▁count	-629
▁tomorrow	-630
ory	-631
blem	-632
▁comm	-633
▁over	-634
▁night	-635
▁world	-636
▁problem	-637
▁aw	-638
ese	-639
▁saw	-640
▁cont	-641
irst	-642
▁quest	-643
▁yesterday	-644
▁understand	-645
osp	-646
▁fl	-647
▁acc	-648
ember	-649
▁question	-650
ok	-651
hes	-652
▁ph	-653
▁find	-654
▁things	-655
▁started	-656
ix	-657
ited	-658
▁met	-659
▁hosp	-660
▁sleep	-661
▁hospital	-662
ged	-663
ious	-664
▁kill	-665
▁meet	-666
▁language	-667
si	-668
ired	-669
▁give	-670
▁stay	-671
▁years	-672
ts	-673
pped	-674
▁boy	-675
▁gave	-676
▁plan	-677
▁tour	-678
ds	-679
ath	-680
aut	-681
▁inv	-682
▁feel	-683
▁remember	-684
ted	-685
meric	-686
▁found	-687
▁brother	-688
ife	-689
ting	-690
▁lost	-691
▁heard	-692
▁tourist	-693
ek	-694
▁In	-695
▁dec	-696
▁may	-697
▁own	-698
▁even	-699
▁girl	-700
▁hear	-701
▁Americ	-702
▁looking	-703
▁happened	-704
▁buy	-705
▁dif	-706
▁hard	-707
enc	-708
ire	-709
iful	-710
inic	-711
▁Jam	-712
▁dri	-713
▁pers	-714
▁beaut	-715
▁clinic	-716
▁another	-717
sw	-718
▁wh	-719
▁study	-720
▁believe	-721
▁gu	-722
▁pa	-723
▁job	-724
▁rest	-725
▁per	-726
▁list	-727
▁Jamal	-728
▁liked	-729
▁watch	-730
▁because	-731
▁beg	-732
▁fami	-733
▁open	-734
▁wasn	-735
▁drink	-736
▁three	-737
▁Berber	-738
▁1	-739
orm	-740
▁ask	-741
▁str	-742
▁answ	-743
▁best	-744
▁student	-745
gy	-746
ign	-747
▁gr	-748
▁end	-749
▁key	-750
▁try	-751
ennad	-752
▁knows	-753
▁Mennad	-754
▁beautiful	-755
az	-756
pe	-757
ork	-758
▁big	-759
▁first	-760
▁leave	-761
▁water	-762
fic	-763
ock	-764
▁mus	-765
▁why	-766
▁hour	-767
▁spend	-768
▁those	-769
owed	-770
rest	-771
▁All	-772
▁mon	-773
▁U	-774
gry	-775
ond	-776
▁fo	-777
▁bed	-778
▁Have	-779
▁next	-780
▁turn	-781
▁week	-782
..	-783
co	-784
ared	-785
augh	-786
▁cle	-787
▁use	-788
anger	-789
▁coll	-790
▁woman	-791
▁called	-792
▁person	-793
▁thought	-794
ered	-795
▁ear	-796
00	-797
any	-798
ark	-799
▁cr	-800
▁cha	-801
▁sur	-802
▁vis	-803
ittle	-804
▁swim	-805
▁music	-806
ens	-807
ful	-808
▁Your	-809
▁away	-810
▁wind	-811
▁doing	-812
▁danger	-813
▁family	-814
▁little	-815
les	-816
airo	-817
imes	-818
ream	-819
▁God	-820
ident	-821
rench	-822
▁pict	-823
▁Cairo	-824
▁French	-825
led	-826
▁hur	-827
▁sis	-828
▁alone	-829
▁month	-830
▁sister	-831
▁everything	-832
av	-833
ud	-834
ug	-835
akes	-836
▁hot	-837
aking	-838
▁ever	-839
▁used	-840
ied	-841
uck	-842
uth	-843
hank	-844
read	-845
▁put	-846
sible	-847
▁children	-848
eb	-849
▁Be	-850
▁wants	-851
▁window	-852
▁waiting	-853
▁2	-854
ato	-855
ced	-856
hile	-857
ised	-858
▁che	-859
▁hun	-860
▁arri	-861
▁lived	-862
▁trans	-863
▁country	-864
▁nothing	-865
▁Japanese	-866
cle	-867
▁TV	-868
▁bo	-869
▁ey	-870
▁gl	-871
▁bir	-872
▁rel	-873
▁sec	-874
▁son	-875
▁late	-876
▁morn	-877
▁same	-878
▁morning	-879
▁without	-880
lic	-881
ions	-882
▁let	-883
▁six	-884
▁care	-885
▁sure	-886
▁books	-887
▁phone	-888
▁became	-889
ank	-890
ars	-891
ffe	-892
▁On	-893
▁imp	-894
▁rain	-895
▁resp	-896
▁soon	-897
▁loves	-898
▁listen	-899
▁Muslims	-900
app	-901
side	-902
▁eas	-903
▁pla	-904
ished	-905
▁died	-906
▁pill	-907
▁Thank	-908
▁lives	-909
▁looks	-910
▁train	-911
▁Nobody	-912
▁around	-913
▁bought	-914
ull	-915
▁vo	-916
uter	-917
▁mist	-918
▁seen	-919
▁answer	-920
▁commun	-921
▁computer	-922
ub	-923
rew	-924
ever	-925
▁bot	-926
▁hours	-927
▁truth	-928
used	-929
work	-930
▁hat	-931
▁tried	-932
▁wrong	-933
cl	-934
eba	-935
ima	-936
ope	-937
▁ac	-938
cept	-939
▁ide	-940
▁run	-941
atoeba	-942
▁these	-943
▁station	-944
ord	-945
ates	-946
▁Dan	-947
▁Isl	-948
▁med	-949
▁Come	-950
▁busy	-951
▁knew	-952
▁coming	-953
▁Tatoeba	-954
▁married	-955
▁talking	-956
aby	-957
ten	-958
▁An	-959
vers	-960
▁fun	-961
▁min	-962
▁clot	-963
▁forg	-964
▁head	-965
▁pain	-966
▁seem	-967
▁such	-968
▁walk	-969
▁while	-970
▁transl	-971
een	-972
oin	-973
vel	-974
gypt	-975
▁cold	-976
▁food	-977
▁hair	-978
▁pret	-979
aughter	-980
ossible	-981
▁change	-982
▁enough	-983
▁America	-984
▁himself	-985
▁picture	-986
gn	-987
ute	-988
ighb	-989
▁His	-990
▁num	-991
feren	-992
rents	-993
▁done	-994
▁kept	-995
▁Alger	-996
▁Egypt	-997
▁Islam	-998
▁deser	-999
▁neighb	-1000
▁Everyone	-1001
▁sentence	-1002
ont	-1003
▁Un	-1004
▁bro	-1005
ating	-1006
erest	-1007
▁kind	-1008
▁tired	-1009
▁dangerous	-1010
ib	-1011
anc	-1012
ors	-1013
form	-1014
▁Chr	-1015
▁mom	-1016
▁war	-1017
▁yet	-1018
▁each	-1019
▁most	-1020
▁then	-1021
▁word	-1022
▁These	-1023
▁being	-1024
▁party	-1025
▁small	-1026
ational	-1027
aw	-1028
inn	-1029
let	-1030
ote	-1031
▁Fr	-1032
orry	-1033
▁And	-1034
▁ser	-1035
▁sto	-1036
ennis	-1037
▁Will	-1038
▁mind	-1039
▁wife	-1040
▁Maybe	-1041
▁great	-1042
▁medic	-1043
▁needs	-1044
▁number	-1045
▁tennis	-1046
▁daughter	-1047
▁tourists	-1048
ff	-1049
ip	-1050
so	-1051
▁As	-1052
cked	-1053
▁add	-1054
▁dep	-1055
▁mat	-1056
ences	-1057
▁born	-1058
▁dogs	-1059
▁eyes	-1060
▁stop	-1061
ations	-1062
gether	-1063
▁visit	-1064
▁voice	-1065
▁young	-1066
▁Christ	-1067
▁killed	-1068
▁parents	-1069
▁playing	-1070
▁working	-1071
no	-1072
▁sn	-1073
cent	-1074
ched	-1075
ject	-1076
▁adv	-1077
▁cho	-1078
▁cry	-1079
▁far	-1080
aught	-1081
▁Dima	-1082
▁Take	-1083
▁fast	-1084
ention	-1085
▁coffe	-1086
▁write	-1087
▁import	-1088
▁together	-1089
▁community	-1090
erm	-1091
ike	-1092
que	-1093
ized	-1094
osed	-1095
ward	-1096
▁act	-1097
▁ent	-1098
▁ext	-1099
▁red	-1100
▁keep	-1101
▁tall	-1102
▁colle	-1103
▁drive	-1104
▁glass	-1105
▁coffee	-1106
▁diffic	-1107
▁looked	-1108
▁arrived	-1109
▁interest	-1110
als	-1111
ily	-1112
▁To	-1113
▁rep	-1114
▁ten	-1115
▁face	-1116
▁hope	-1117
▁mean	-1118
▁show	-1119
▁clean	-1120
▁inter	-1121
▁loved	-1122
▁sound	-1123
▁college	-1124
▁accident	-1125
▁homework	-1126
oke	-1127
ove	-1128
ages	-1129
lain	-1130
raid	-1131
▁Not	-1132
▁fav	-1133
▁mos	-1134
▁reg	-1135
▁thr	-1136
iness	-1137
▁Does	-1138
▁Stop	-1139
▁aren	-1140
▁cook	-1141
▁easy	-1142
▁supp	-1143
▁writ	-1144
▁ready	-1145
▁afraid	-1146
ah	-1147
med	-1148
oud	-1149
ret	-1150
▁Sh	-1151
▁ch	-1152
▁em	-1153
▁sk	-1154
hind	-1155
ided	-1156
ince	-1157
▁Our	-1158
▁mov	-1159
▁unt	-1160
ready	-1161
▁Chin	-1162
▁days	-1163
▁once	-1164
▁pass	-1165
▁pres	-1166
▁Dania	-1167
▁hands	-1168
▁place	-1169
▁behind	-1170
▁couldn	-1171
▁living	-1172
▁already	-1173
▁clothes	-1174
▁getting	-1175
▁through	-1176
▁neighbor	-1177
adi	-1178
aza	-1179
alth	-1180
reet	-1181
room	-1182
▁For	-1183
▁kid	-1184
oking	-1185
▁Gaza	-1186
▁also	-1187
▁foll	-1188
▁free	-1189
▁prom	-1190
▁sing	-1191
iction	-1192
▁heart	-1193
▁often	-1194
▁worked	-1195
▁meeting	-1196
▁finished	-1197
▁students	-1198
▁difficult	-1199
ann	-1200
elt	-1201
olo	-1202
ange	-1203
ason	-1204
hood	-1205
ness	-1206
▁air	-1207
▁bad	-1208
▁pay	-1209
▁ret	-1210
ision	-1211
oston	-1212
▁Give	-1213
▁baby	-1214
▁cann	-1215
▁fell	-1216
▁near	-1217
▁dream	-1218
▁haven	-1219
▁quick	-1220
▁stand	-1221
▁times	-1222
▁Boston	-1223
▁speaks	-1224
▁changed	-1225
▁sentences	-1226
ely	-1227
joy	-1228
ater	-1229
cial	-1230
fect	-1231
reed	-1232
▁hum	-1233
▁lea	-1234
▁mem	-1235
▁set	-1236
▁fore	-1237
▁idea	-1238
▁real	-1239
▁Could	-1240
▁death	-1241
▁sorry	-1242
▁story	-1243
▁treat	-1244
▁worry	-1245
▁cannot	-1246
▁having	-1247
▁mosque	-1248
▁office	-1249
▁Algeria	-1250
▁letters	-1251
▁important	-1252
aur	-1253
per	-1254
ple	-1255
ming	-1256
more	-1257
reak	-1258
▁ind	-1259
▁mess	-1260
▁pian	-1261
▁tick	-1262
onight	-1263
▁enjoy	-1264
▁moved	-1265
▁table	-1266
▁trust	-1267
▁until	-1268
▁anyone	-1269
▁against	-1270
▁differen	-1271
▁Christian	-1272
iv	-1273
pr	-1274
ild	-1275
lse	-1276
▁ago	-1277
ately	-1278
ected	-1279
ouble	-1280
uring	-1281
where	-1282
▁city	-1283
▁fire	-1284
▁four	-1285
▁hurt	-1286
▁true	-1287
aurant	-1288
ressed	-1289
▁angry	-1290
▁shoes	-1291
▁which	-1292
▁words	-1293
▁turned	-1294
▁anymore	-1295
▁tonight	-1296
▁yourself	-1297
▁restaurant	-1298
Tu	-1299
ins	-1300
▁At	-1301
ings	-1302
lack	-1303
land	-1304
ning	-1305
▁But	-1306
▁Pal	-1307
▁fig	-1308
▁mil	-1309
ative	-1310
estin	-1311
icked	-1312
ually	-1313
▁Good	-1314
▁Isra	-1315
▁able	-1316
▁conf	-1317
▁else	-1318
▁high	-1319
▁YouTu	-1320
▁broke	-1321
▁relig	-1322
▁become	-1323
▁eating	-1324
▁complet	-1325
▁someone	-1326
br	-1327
ued	-1328
ased	-1329
ator	-1330
rect	-1331
ular	-1332
▁Her	-1333
▁One	-1334
▁arg	-1335
▁few	-1336
▁its	-1337
▁pop	-1338
ither	-1339
▁cons	-1340
▁dead	-1341
▁felt	-1342
▁tele	-1343
▁noise	-1344
▁Israel	-1345
▁hungry	-1346
▁others	-1347
▁reason	-1348
▁trying	-1349
▁YouTube	-1350
bed	-1351
ert	-1352
icy	-1353
tle	-1354
▁So	-1355
▁gi	-1356
ison	-1357
ries	-1358
unch	-1359
▁Pol	-1360
▁sub	-1361
alked	-1362
ility	-1363
inner	-1364
ition	-1365
ivers	-1366
▁Tell	-1367
▁goes	-1368
▁news	-1369
▁rich	-1370
▁town	-1371
▁black	-1372
▁comes	-1373
▁front	-1374
▁piano	-1375
▁thank	-1376
▁wrote	-1377
▁return	-1378
▁wonder	-1379
▁decided	-1380
▁mistake	-1381
▁watching	-1382
...	-1383
ize	-1384
▁Sp	-1385
▁Wh	-1386
▁ap	-1387
▁ho	-1388
less	-1389
upid	-1390
▁bet	-1391
▁hit	-1392
▁pen	-1393
▁ref	-1394
▁ter	-1395
aring	-1396
▁fact	-1397
▁five	-1398
▁began	-1399
▁break	-1400
▁close	-1401
▁favor	-1402
▁hotel	-1403
▁might	-1404
▁spent	-1405
▁accept	-1406
▁dinner	-1407
▁stupid	-1408
▁deserve	-1409
▁invited	-1410
▁missing	-1411
ee	-1412
ump	-1413
▁sl	-1414
most	-1415
▁sun	-1416
▁Here	-1417
▁char	-1418
▁nice	-1419
▁pick	-1420
▁tree	-1421
▁early	-1422
▁surpr	-1423
▁disapp	-1424
▁health	-1425
▁matter	-1426
▁myself	-1427
▁pretty	-1428
▁diction	-1429
▁reading	-1430
▁trouble	-1431
▁writing	-1432
▁religion	-1433
▁languages	-1434
?"	-1435
fer	-1436
ons	-1437
raz	-1438
▁19	-1439
ists	-1440
ower	-1441
▁Ken	-1442
▁cam	-1443
▁guy	-1444
▁ill	-1445
▁law	-1446
▁tri	-1447
▁whe	-1448
▁road	-1449
▁Would	-1450
▁birth	-1451
▁makes	-1452
▁seems	-1453
▁strong	-1454
▁waited	-1455
▁quickly	-1456
▁possible	-1457
▁questions	-1458
uc	-1459
ror	-1460
▁Jo	-1461
▁ev	-1462
▁sy	-1463
ably	-1464
ancy	-1465
▁ass	-1466
▁cap	-1467
▁det	-1468
▁inc	-1469
▁ran	-1470
▁sum	-1471
▁tea	-1472
▁Germ	-1473
▁Some	-1474
▁both	-1475
▁conv	-1476
▁prot	-1477
▁light	-1478
▁since	-1479
▁women	-1480
ression	-1481
▁Police	-1482
▁borrow	-1483
▁needed	-1484
▁opened	-1485
▁brought	-1486
▁favorite	-1487
▁learning	-1488
▁dictionary	-1489
0.	-1490
hip	-1491
ric	-1492
uss	-1493
▁Af	-1494
aken	-1495
ical	-1496
oint	-1497
ures	-1498
▁art	-1499
▁hor	-1500
▁lar	-1501
ended	-1502
pping	-1503
▁Look	-1504
▁card	-1505
▁mine	-1506
▁rece	-1507
▁reco	-1508
▁shop	-1509
▁apple	-1510
▁works	-1511
▁United	-1512
▁follow	-1513
▁forgot	-1514
▁company	-1515
▁perfect	-1516
▁Everybody	-1517
▁neighborhood	-1518
umb	-1519
▁Br	-1520
▁ca	-1521
ense	-1522
ived	-1523
▁aff	-1524
▁bit	-1525
▁cor	-1526
▁cou	-1527
▁dro	-1528
▁exc	-1529
▁gun	-1530
▁rec	-1531
▁sat	-1532
▁sit	-1533
ccess	-1534
clock	-1535
eared	-1536
itted	-1537
itten	-1538
▁Just	-1539
▁Many	-1540
▁drug	-1541
▁exam	-1542
▁lose	-1543
▁milk	-1544
▁poor	-1545
▁wall	-1546
▁Which	-1547
▁pregn	-1548
▁short	-1549
▁Thanks	-1550
▁almost	-1551
▁contin	-1552
▁inside	-1553
▁report	-1554
▁explain	-1555
▁business	-1556
▁drinking	-1557
▁national	-1558
hn	-1559
li	-1560
hem	-1561
iet	-1562
sel	-1563
▁ob	-1564
coho	-1565
ents	-1566
ians	-1567
ween	-1568
▁Yes	-1569
▁age	-1570
▁die	-1571
▁ele	-1572
▁hon	-1573
board	-1574
▁John	-1575
▁cour	-1576
▁full	-1577
▁keys	-1578
▁opin	-1579
▁past	-1580
▁shot	-1581
itting	-1582
▁beach	-1583
▁build	-1584
▁exact	-1585
▁pills	-1586
▁whole	-1587
▁States	-1588
▁caught	-1589
▁during	-1590
▁inform	-1591
▁months	-1592
▁respon	-1593
▁wouldn	-1594
▁classes	-1595
▁glasses	-1596
▁smoking	-1597
▁stopped	-1598
▁whether	-1599
▁Palestin	-1600
▁everyone	-1601
▁spending	-1602
gg	-1603
ati	-1604
cer	-1605
eal	-1606
ilt	-1607
itc	-1608
▁Mr	-1609
cket	-1610
ined	-1611
ured	-1612
utes	-1613
▁New	-1614
▁Sun	-1615
▁adm	-1616
▁amb	-1617
▁pri	-1618
▁sol	-1619
▁swe	-1620
iding	-1621
▁anim	-1622
▁bicy	-1623
▁disc	-1624
▁dist	-1625
▁fail	-1626
▁hate	-1627
▁jail	-1628
▁quit	-1629
▁tast	-1630
selves	-1631
▁dress	-1632
▁uncle	-1633
▁alcoho	-1634
▁expect	-1635
▁moment	-1636
▁street	-1637
▁ticket	-1638
▁protect	-1639
▁success	-1640
▁American	-1641
▁sleeping	-1642
ph	-1643
▁-	-1644
ial	-1645
ics	-1646
onn	-1647
oth	-1648
rem	-1649
▁Pe	-1650
anni	-1651
aper	-1652
ball	-1653
noon	-1654
▁cut	-1655
▁flo	-1656
▁mur	-1657
▁nur	-1658
▁opp	-1659
▁sla	-1660
▁win	-1661
ushed	-1662
▁cats	-1663
▁cent	-1664
▁clim	-1665
▁fish	-1666
▁land	-1667
▁less	-1668
▁math	-1669
▁Yanni	-1670
▁chair	-1671
▁movie	-1672
▁pract	-1673
▁smell	-1674
▁store	-1675
▁worth	-1676
▁either	-1677
▁expens	-1678
▁pocket	-1679
▁prefer	-1680
▁taking	-1681
▁allowed	-1682
▁between	-1683
▁bicycle	-1684
▁shouldn	-1685
▁studying	-1686
▁swimming	-1687
▁teachers	-1688
▁afternoon	-1689
▁listening	-1690
ash	-1691
idi	-1692
ile	-1693
iol	-1694
airs	-1695
come	-1696
ding	-1697
orts	-1698
razy	-1699
▁ann	-1700
▁arm	-1701
▁ate	-1702
▁col	-1703
▁def	-1704
▁div	-1705
▁pur	-1706
▁sci	-1707
▁sim	-1708
bably	-1709
ities	-1710
veral	-1711
▁Wait	-1712
▁burn	-1713
▁desk	-1714
▁kiss	-1715
▁slow	-1716
▁song	-1717
▁wish	-1718
▁China	-1719
▁grand	-1720
▁human	-1721
▁shall	-1722
▁shoot	-1723
▁slept	-1724
▁Sunday	-1725
▁crying	-1726
▁making	-1727
▁result	-1728
▁social	-1729
iversity	-1730
ointment	-1731
▁exactly	-1732
▁herself	-1733
▁learned	-1734
▁outside	-1735
▁present	-1736
▁several	-1737
▁probably	-1738
▁speaking	-1739
▁different	-1740
▁completely	-1741
▁information	-1742
ef	-1743
ss	-1744
yo	-1745
den	-1746
▁fa	-1747
▁ru	-1748
cess	-1749
fort	-1750
hose	-1751
okyo	-1752
▁Far	-1753
▁Get	-1754
▁Mon	-1755
▁fix	-1756
▁sus	-1757
estig	-1758
phone	-1759
▁body	-1760
▁kids	-1761
▁paid	-1762
▁park	-1763
▁sick	-1764
▁vide	-1765
▁Those	-1766
▁Tokyo	-1767
▁earth	-1768
▁exper	-1769
▁order	-1770
▁white	-1771
▁course	-1772
▁honest	-1773
▁missed	-1774
▁rights	-1775
▁scared	-1776
▁foreign	-1777
▁minutes	-1778
▁opinion	-1779
▁strange	-1780
▁decision	-1781
▁medicine	-1782
▁appointment	-1783
Say	-1784
irt	-1785
ism	-1786
lad	-1787
oss	-1788
oto	-1789
sib	-1790
uit	-1791
▁ma	-1792
atur	-1793
ored	-1794
rees	-1795
▁dev	-1796
▁rac	-1797
▁tou	-1798
Sayib	-1799
ained	-1800
ction	-1801
ution	-1802
▁bank	-1803
▁blue	-1804
▁club	-1805
▁doll	-1806
▁enem	-1807
▁gone	-1808
▁poin	-1809
▁requ	-1810
▁says	-1811
▁sign	-1812
▁viol	-1813
▁Farid	-1814
▁blood	-1815
▁crazy	-1816
▁lunch	-1817
▁older	-1818
▁quite	-1819
▁yours	-1820
▁Monday	-1821
▁arrest	-1822
▁berber	-1823
▁extrem	-1824
▁finish	-1825
▁picked	-1826
▁saying	-1827
▁secret	-1828
▁showed	-1829
▁anybody	-1830
▁finally	-1831
▁forgive	-1832
▁serious	-1833
▁usually	-1834
▁wearing	-1835
▁written	-1836
▁keyboard	-1837
▁translate	-1838
by	-1839
ale	-1840
bit	-1841
ces	-1842
ead	-1843
man	-1844
oub	-1845
rib	-1846
uro	-1847
onna	-1848
ract	-1849
reci	-1850
reen	-1851
stit	-1852
ying	-1853
▁fut	-1854
▁idi	-1855
▁par	-1856
▁pun	-1857
dered	-1858
ently	-1859
inced	-1860
lcome	-1861
▁deep	-1862
▁fall	-1863
▁fine	-1864
▁foot	-1865
▁grow	-1866
▁meat	-1867
▁move	-1868
▁ride	-1869
▁stra	-1870
▁susp	-1871
▁team	-1872
ically	-1873
leased	-1874
reedom	-1875
▁creat	-1876
▁ended	-1877
▁fruit	-1878
▁gonna	-1879
▁hurry	-1880
▁idiot	-1881
▁later	-1882
▁marry	-1883
▁plane	-1884
▁member	-1885
▁pillow	-1886
▁rather	-1887
▁seeing	-1888
▁travel	-1889
▁address	-1890
▁alcohol	-1891
▁forward	-1892
▁freedom	-1893
▁perform	-1894
▁popular	-1895
▁respect	-1896
▁watched	-1897
▁problems	-1898
▁somebody	-1899
▁attention	-1900
▁continued	-1901
▁convinced	-1902
ex	-1903
mp	-1904
▁3	-1905
ada	-1906
col	-1907
era	-1908
ift	-1909
ket	-1910
nel	-1911
rol	-1912
ual	-1913
adiq	-1914
irty	-1915
medi	-1916
olog	-1917
oned	-1918
ross	-1919
▁Bob	-1920
▁dem	-1921
▁gen	-1922
▁ins	-1923
▁nam	-1924
right	-1925
vered	-1926
verse	-1927
▁dark	-1928
▁expl	-1929
▁fear	-1930
▁grew	-1931
▁hist	-1932
▁inst	-1933
▁priv	-1934
▁radi	-1935
▁yell	-1936
▁Sadiq	-1937
▁agree	-1938
▁clear	-1939
▁eight	-1940
▁floor	-1941
▁horse	-1942
▁knife	-1943
▁known	-1944
▁least	-1945
▁means	-1946
▁quiet	-1947
▁touch	-1948
▁weren	-1949
▁helped	-1950
▁immedi	-1951
▁longer	-1952
▁scream	-1953
▁summer	-1954
▁animals	-1955
▁appreci	-1956
▁bedroom	-1957
▁studied	-1958
▁visited	-1959
▁weather	-1960
▁building	-1961
▁thinking	-1962
▁expensive	-1963
▁immediately	-1964
▁interesting	-1965
du	-1966
ps	-1967
000	-1968
ane	-1969
ech	-1970
ude	-1971
▁ed	-1972
ffic	-1973
outh	-1974
tern	-1975
vern	-1976
▁Jim	-1977
▁ant	-1978
▁dad	-1979
▁fit	-1980
▁men	-1981
▁sea	-1982
▁sil	-1983
▁spr	-1984
ology	-1985
vious	-1986
▁Life	-1987
▁Most	-1988
▁With	-1989
▁bath	-1990
▁game	-1991
▁lead	-1992
▁pray	-1993
▁prin	-1994
▁rear	-1995
▁shut	-1996
▁snow	-1997
▁Today	-1998
▁alive	-1999
▁bring	-2000
▁built	-2001
▁laugh	-2002
▁nurse	-2003
▁proud	-2004
▁radio	-2005
▁river	-2006
▁spoke	-2007
▁France	-2008
▁apples	-2009
▁leaves	-2010
▁minute	-2011
▁murder	-2012
▁played	-2013
▁prison	-2014
▁recogn	-2015
▁Chinese	-2016
▁Nothing	-2017
▁airport	-2018
▁evening	-2019
▁feeling	-2020
▁history	-2021
▁leaving	-2022
▁promise	-2023
▁weekend	-2024
▁investig	-2025
▁received	-2026
▁returned	-2027
▁countries	-2028
▁telephone	-2029
cce	-2030
erv	-2031
eth	-2032
gar	-2033
ges	-2034
iew	-2035
rat	-2036
set	-2037
ury	-2038
ush	-2039
▁OK	-2040
appy	-2041
fast	-2042
ging	-2043
iday	-2044
rell	-2045
road	-2046
ster	-2047
ully	-2048
▁bag	-2049
▁box	-2050
▁cup	-2051
▁inj	-2052
▁pie	-2053
▁sal	-2054
▁umb	-2055
brary	-2056
cceed	-2057
▁Span	-2058
▁Turn	-2059
▁boss	-2060
▁cost	-2061
▁figs	-2062
▁guys	-2063
▁kitc	-2064
▁luck	-2065
▁mail	-2066
▁pati	-2067
▁safe	-2068
▁test	-2069
▁text	-2070
▁trip	-2071
stairs	-2072
▁After	-2073
▁Happy	-2074
▁aware	-2075
▁begin	-2076
▁clock	-2077
▁dance	-2078
▁fight	-2079
▁girlf	-2080
▁girls	-2081
▁large	-2082
▁share	-2083
▁taken	-2084
▁bottle	-2085
▁camera	-2086
▁closed	-2087
▁experi	-2088
▁future	-2089
▁govern	-2090
▁locked	-2091
▁movies	-2092
▁racist	-2093
▁stayed	-2094
▁talked	-2095
sibility	-2096
▁enjoyed	-2097
▁entered	-2098
▁kitchen	-2099
▁library	-2100
▁succeed	-2101
▁umbrell	-2102
▁birthday	-2103
▁shopping	-2104
▁breakfast	-2105
▁treatment	-2106
▁girlfriend	-2107
▁impossible	-2108
!"	-2109
6.	-2110
ik	-2111
mb	-2112
ny	-2113
▁Q	-2114
▁V	-2115
ats	-2116
erc	-2117
ety	-2118
ier	-2119
ler	-2120
ned	-2121
unt	-2122
way	-2123
▁Le	-2124
▁Tr	-2125
ants	-2126
enty	-2127
iced	-2128
idge	-2129
iled	-2130
iter	-2131
ones	-2132
oose	-2133
uing	-2134
▁200	-2135
▁fam	-2136
▁fly	-2137
▁lie	-2138
▁sad	-2139
arden	-2140
aster	-2141
fully	-2142
illed	-2143
irsty	-2144
night	-2145
ondon	-2146
ories	-2147
owers	-2148
ublic	-2149
urope	-2150
▁Both	-2151
▁Even	-2152
▁Ital	-2153
▁base	-2154
▁bill	-2155
▁cake	-2156
▁cast	-2157
▁cert	-2158
▁chur	-2159
▁clos	-2160
▁form	-2161
▁fuck	-2162
▁glad	-2163
▁prep	-2164
▁suit	-2165
▁surv	-2166
ousand	-2167
vision	-2168
▁Nancy	-2169
▁birds	-2170
▁crime	-2171
▁fired	-2172
▁peace	-2173
▁plays	-2174
▁point	-2175
▁sweet	-2176
▁threw	-2177
▁Europe	-2178
▁German	-2179
▁London	-2180
▁People	-2181
▁chance	-2182
▁except	-2183
▁famous	-2184
▁garden	-2185
▁hiding	-2186
▁second	-2187
▁slowly	-2188
▁taught	-2189
▁walked	-2190
▁Spanish	-2191
▁happens	-2192
▁message	-2193
▁sitting	-2194
▁brothers	-2195
▁pictures	-2196
▁umbrella	-2197
▁depression	-2198
▁medication	-2199
bs	-2200
oc	-2201
▁9	-2202
apt	-2203
omp	-2204
une	-2205
unk	-2206
▁Ex	-2207
▁Ky	-2208
▁ve	-2209
,000	-2210
dden	-2211
ible	-2212
ices	-2213
ider	-2214
ific	-2215
leep	-2216
orce	-2217
sing	-2218
ules	-2219
urry	-2220
▁Ann	-2221
▁Hey	-2222
▁abs	-2223
▁cop	-2224
▁flu	-2225
▁gar	-2226
▁led	-2227
▁mag	-2228
▁rob	-2229
▁vac	-2230
ached	-2231
acked	-2232
ature	-2233
inite	-2234
▁Mike	-2235
▁bike	-2236
▁bird	-2237
▁case	-2238
▁cond	-2239
▁deal	-2240
▁half	-2241
▁inno	-2242
▁save	-2243
friend	-2244
▁Never	-2245
▁ambul	-2246
▁apart	-2247
▁color	-2248
▁compr	-2249
▁drank	-2250
▁enemy	-2251
▁hates	-2252
▁saved	-2253
▁stole	-2254
▁twice	-2255
▁using	-2256
▁video	-2257
▁abroad	-2258
▁advice	-2259
▁affair	-2260
▁begins	-2261
▁belong	-2262
▁choice	-2263
▁church	-2264
▁depend	-2265
▁intend	-2266
▁necess	-2267
▁princi	-2268
▁sudden	-2269
▁Welcome	-2270
▁account	-2271
▁collect	-2272
▁contact	-2273
▁control	-2274
▁discuss	-2275
▁driving	-2276
▁flowers	-2277
▁painted	-2278
▁traffic	-2279
▁windows	-2280
▁arrested	-2281
▁believed	-2282
▁surprise	-2283
▁thousand	-2284
▁committed	-2285
▁everybody	-2286
▁television	-2287
:3	-2288
▁6	-2289
cri	-2290
ggs	-2291
gth	-2292
ird	-2293
llo	-2294
men	-2295
old	-2296
oup	-2297
▁20	-2298
▁Dr	-2299
▁Em	-2300
▁ju	-2301
aris	-2302
book	-2303
ccer	-2304
clud	-2305
dred	-2306
ened	-2307
laim	-2308
oken	-2309
oted	-2310
▁Jew	-2311
▁Now	-2312
▁See	-2313
▁Was	-2314
▁ben	-2315
▁enc	-2316
▁gay	-2317
▁iss	-2318
▁loc	-2319
▁mid	-2320
▁mir	-2321
▁occ	-2322
▁ris	-2323
▁sky	-2324
▁wed	-2325
enced	-2326
encil	-2327
olved	-2328
redit	-2329
▁Aart	-2330
▁Jack	-2331
▁Jane	-2332
▁Move	-2333
▁Stay	-2334
▁boys	-2335
▁cell	-2336
▁doub	-2337
▁heav	-2338
▁hole	-2339
▁loud	-2340
▁post	-2341
▁prog	-2342
▁sear	-2343
▁sell	-2344
▁vict	-2345
father	-2346
▁Kyoto	-2347
▁Paris	-2348
▁Whose	-2349
▁calls	-2350
▁check	-2351
▁given	-2352
▁green	-2353
▁impro	-2354
▁juice	-2355
▁mouth	-2356
▁named	-2357
▁novel	-2358
▁sense	-2359
▁solve	-2360
▁teach	-2361
▁teeth	-2362
▁trave	-2363
ination	-2364
▁anthem	-2365
▁appear	-2366
▁attack	-2367
▁intern	-2368
▁pencil	-2369
▁recent	-2370
▁useful	-2371
▁attract	-2372
▁channel	-2373
▁cooking	-2374
▁correct	-2375
▁dollars	-2376
▁hundred	-2377
▁members	-2378
▁project	-2379
▁running	-2380
▁science	-2381
▁thirsty	-2382
▁walking	-2383
▁appeared	-2384
▁painting	-2385
▁pregnant	-2386
▁realized	-2387
▁straight	-2388
▁ambulance	-2389
▁boyfriend	-2390
▁extremely	-2391
▁surprised	-2392
▁government	-2393
▁responsibility	-2394
eg	-2395
ey	-2396
uk	-2397
uz	-2398
▁'	-2399
aya	-2400
dle	-2401
esc	-2402
jor	-2403
ken	-2404
ots	-2405
rit	-2406
ues	-2407
uge	-2408
usb	-2409
▁Of	-2410
ails	-2411
arth	-2412
ches	-2413
empt	-2414
ling	-2415
onom	-2416
peak	-2417
yond	-2418
▁Che	-2419
▁Mar	-2420
▁Ram	-2421
▁bor	-2422
▁bra	-2423
▁equ	-2424
▁hol	-2425
▁leg	-2426
▁tie	-2427
isten	-2428
riage	-2429
▁Call	-2430
▁Kaby	-2431
▁Love	-2432
▁Shut	-2433
▁Then	-2434
▁Were	-2435
▁eggs	-2436
▁hasn	-2437
▁hold	-2438
▁husb	-2439
▁king	-2440
▁line	-2441
▁poem	-2442
▁purp	-2443
▁send	-2444
▁side	-2445
▁wake	-2446
▁wood	-2447
▁Earth	-2448
▁Hello	-2449
▁Hurry	-2450
▁Somet	-2451
▁annoy	-2452
▁appro	-2453
▁cried	-2454
▁drunk	-2455
▁eaten	-2456
▁exist	-2457
▁gener	-2458
▁hated	-2459
▁liter	-2460
▁lucky	-2461
▁mount	-2462
▁power	-2463
▁price	-2464
▁rules	-2465
▁smoke	-2466
▁state	-2467
▁stood	-2468
▁swall	-2469
▁trees	-2470
▁truck	-2471
▁Canada	-2472
▁Listen	-2473
▁asleep	-2474
▁attend	-2475
▁castle	-2476
▁entire	-2477
▁includ	-2478
▁nation	-2479
▁rushed	-2480
▁soccer	-2481
▁speech	-2482
▁spoken	-2483
▁taller	-2484
▁accused	-2485
▁arguing	-2486
▁certain	-2487
▁dropped	-2488
▁husband	-2489
▁princip	-2490
▁private	-2491
▁slapped	-2492
▁subject	-2493
▁wedding	-2494
▁complain	-2495
▁prepared	-2496
▁standing	-2497
▁pregnancy	-2498
▁sometimes	-2499
▁appreciate	-2500
▁difference	-2501
▁Palestinian	-2502
▁disappeared	-2503
▁grandfather	-2504
▁Palestinians	-2505
".	-2506
ax	-2507
de	-2508
ji	-2509
pl	-2510
cks	-2511
har	-2512
oun	-2513
ram	-2514
rup	-2515
▁By	-2516
▁Hi	-2517
▁Sm	-2518
▁av	-2519
▁ec	-2520
▁la	-2521
adan	-2522
aded	-2523
anta	-2524
brew	-2525
cuse	-2526
olen	-2527
omen	-2528
rown	-2529
sper	-2530
▁Any	-2531
▁Bec	-2532
▁Bet	-2533
▁Dad	-2534
▁Tur	-2535
▁bar	-2536
▁dam	-2537
▁fil	-2538
▁inf	-2539
▁jud	-2540
▁mad	-2541
▁sup	-2542
▁tem	-2543
▁van	-2544
astic	-2545
ested	-2546
izing	-2547
ledge	-2548
ustom	-2549
▁Baya	-2550
▁Face	-2551
▁Lord	-2552
▁aunt	-2553
▁ball	-2554
▁bark	-2555
▁camp	-2556
▁coat	-2557
▁cult	-2558
▁dest	-2559
▁eats	-2560
▁fool	-2561
▁held	-2562
▁lawy	-2563
▁lend	-2564
▁lied	-2565
▁moon	-2566
▁rent	-2567
▁thin	-2568
▁wash	-2569
colate	-2570
▁Bring	-2571
▁cross	-2572
▁doors	-2573
▁greet	-2574
▁major	-2575
▁polit	-2576
▁popul	-2577
▁seven	-2578
▁shape	-2579
▁talks	-2580
▁tells	-2581
▁terri	-2582
▁upset	-2583
▁Forget	-2584
▁Hebrew	-2585
▁School	-2586
▁agreed	-2587
▁apolog	-2588
▁beyond	-2589
▁caused	-2590
▁credit	-2591
▁dating	-2592
▁direct	-2593
▁driver	-2594
▁market	-2595
▁memory	-2596
▁moving	-2597
▁native	-2598
▁poison	-2599
▁raised	-2600
▁regard	-2601
▁stolen	-2602
▁terror	-2603
▁thanks	-2604
▁though	-2605
▁threat	-2606
▁toward	-2607
▁Because	-2608
▁Ramadan	-2609
▁climbed	-2610
▁created	-2611
▁divorce	-2612
▁noticed	-2613
▁purpose	-2614
▁support	-2615
▁telling	-2616
▁answered	-2617
▁baseball	-2618
▁believes	-2619
▁consider	-2620
▁followed	-2621
▁innocent	-2622
▁mountain	-2623
▁passport	-2624
▁planning	-2625
▁vacation	-2626
▁whatever	-2627
▁chocolate	-2628
▁pretended	-2629
▁somewhere	-2630
▁University	-2631
▁experience	-2632
▁interested	-2633
▁translated	-2634
▁international	-2635
▁z	-2636
cts	-2637
lie	-2638
oid	-2639
ony	-2640
ray	-2641
rip	-2642
▁Gr	-2643
▁Se	-2644
▁Sw	-2645
▁ty	-2646
aged	-2647
anna	-2648
ides	-2649
leas	-2650
lied	-2651
lled	-2652
rage	-2653
stem	-2654
ters	-2655
▁Eat	-2656
▁Put	-2657
▁Sha	-2658
▁War	-2659
▁bas	-2660
▁deb	-2661
▁den	-2662
▁eye	-2663
▁fat	-2664
▁hop	-2665
▁ign	-2666
▁imm	-2667
▁nor	-2668
▁pos	-2669
▁top	-2670
ality	-2671
ental	-2672
ocked	-2673
ortun	-2674
riger	-2675
▁Aren	-2676
▁Help	-2677
▁Kate	-2678
▁Show	-2679
▁Well	-2680
▁amaz	-2681
▁bear	-2682
▁cars	-2683
▁cous	-2684
▁gift	-2685
▁hous	-2686
▁huge	-2687
▁lake	-2688
▁mach	-2689
▁page	-2690
▁pool	-2691
▁prof	-2692
▁prop	-2693
▁ring	-2694
▁self	-2695
▁sold	-2696
▁suff	-2697
▁till	-2698
▁warm	-2699
▁ways	-2700
▁wear	-2701
▁wine	-2702
fortun	-2703
▁Emily	-2704
▁Leave	-2705
▁Speak	-2706
▁above	-2707
▁along	-2708
▁blind	-2709
▁bread	-2710
▁const	-2711
▁disco	-2712
▁drugs	-2713
▁extra	-2714
▁feels	-2715
▁gives	-2716
▁guess	-2717
▁keeps	-2718
▁local	-2719
▁natur	-2720
▁paper	-2721
▁piece	-2722
▁sugar	-2723
▁takes	-2724
▁taste	-2725
▁wanna	-2726
▁weird	-2727
▁whose	-2728
▁worse	-2729
initely	-2730
licated	-2731
▁Friday	-2732
▁Intern	-2733
▁Mother	-2734
▁Should	-2735
▁argued	-2736
▁arrive	-2737
▁asking	-2738
▁broken	-2739
▁cancer	-2740
▁center	-2741
▁common	-2742
▁concer	-2743
▁couple	-2744
▁dishes	-2745
▁dreams	-2746
▁easily	-2747
▁econom	-2748
▁lawyer	-2749
▁orange	-2750
▁passed	-2751
▁public	-2752
▁remind	-2753
▁sports	-2754
▁spring	-2755
▁thinks	-2756
▁twenty	-2757
▁wallet	-2758
▁within	-2759
▁Germany	-2760
▁Italian	-2761
▁barking	-2762
▁calling	-2763
▁capital	-2764
▁comfort	-2765
▁dressed	-2766
▁illness	-2767
▁instead	-2768
▁refused	-2769
▁suspect	-2770
▁treated	-2771
rigerator	-2772
▁Facebook	-2773
▁complete	-2774
▁confused	-2775
▁listened	-2776
▁marriage	-2777
▁opportun	-2778
▁promised	-2779
▁remained	-2780
▁Sometimes	-2781
▁disappoin	-2782
▁expecting	-2783
▁wonderful	-2784
▁Everything	-2785
▁everywhere	-2786
▁themselves	-2787
▁university	-2788
▁complicated	-2789
▁investigation	-2790
3.	-2791
?!	-2792
ai	-2793
io	-2794
tt	-2795
▁Z	-2796
acy	-2797
aka	-2798
ask	-2799
asy	-2800
aug	-2801
ded	-2802
ele	-2803
eor	-2804
lew	-2805
now	-2806
omm	-2807
par	-2808
ral	-2809
rop	-2810
roy	-2811
tom	-2812
▁Ar	-2813
▁De	-2814
▁Ke	-2815
▁Li	-2816
▁Mu	-2817
▁Wr	-2818
▁er	-2819
▁ir	-2820
▁wa	-2821
akir	-2822
aven	-2823
eter	-2824
fied	-2825
iche	-2826
ifty	-2827
ilar	-2828
ilty	-2829
imin	-2830
king	-2831
ords	-2832
view	-2833
▁Car	-2834
▁Has	-2835
▁Ind	-2836
▁Sal	-2837
▁Try	-2838
▁aut	-2839
▁bat	-2840
▁cow	-2841
▁eff	-2842
▁eng	-2843
▁esc	-2844
▁est	-2845
▁fre	-2846
▁hom	-2847
▁map	-2848
▁shy	-2849
▁tax	-2850
▁tot	-2851
bsite	-2852
ciety	-2853
raged	-2854
urity	-2855
▁Aust	-2856
▁Bank	-2857
▁Geor	-2858
▁Make	-2859
▁Russ	-2860
▁West	-2861
▁York	-2862
▁area	-2863
▁boat	-2864
▁dise	-2865
▁educ	-2866
▁inse	-2867
▁join	-2868
▁laug	-2869
▁lies	-2870
▁mill	-2871
▁norm	-2872
▁nose	-2873
▁pred	-2874
▁pull	-2875
▁risk	-2876
▁seat	-2877
▁shar	-2878
▁stom	-2879
▁vers	-2880
▁vill	-2881
▁warn	-2882
▁weak	-2883
▁whom	-2884
▁wore	-2885
ealous	-2886
laimed	-2887
pected	-2888
▁Allah	-2889
▁Bakir	-2890
▁Betty	-2891
▁Child	-2892
▁Great	-2893
▁Their	-2894
▁Women	-2895
▁allow	-2896
▁bless	-2897
▁bored	-2898
▁cards	-2899
▁delic	-2900
▁doubt	-2901
▁drove	-2902
▁email	-2903
▁equal	-2904
▁escap	-2905
▁faith	-2906
▁fault	-2907
▁fixed	-2908
▁ideas	-2909
▁issue	-2910
▁judge	-2911
▁knock	-2912
▁magaz	-2913
▁neare	-2914
▁newsp	-2915
▁shirt	-2916
▁smart	-2917
▁worst	-2918
stitute	-2919
▁Excuse	-2920
▁afford	-2921
▁bridge	-2922
▁burned	-2923
▁butter	-2924
▁conver	-2925
▁decide	-2926
▁drinks	-2927
▁failed	-2928
▁flower	-2929
▁guilty	-2930
▁intell	-2931
▁invite	-2932
▁island	-2933
▁lasted	-2934
▁lesson	-2935
▁mirror	-2936
▁myster	-2937
▁planet	-2938
▁repair	-2939
▁single	-2940
▁system	-2941
▁thirty	-2942
▁washed	-2943
▁winter	-2944
▁Kabylie	-2945
▁attempt	-2946
▁cleaned	-2947
▁destroy	-2948
▁hitting	-2949
▁kidding	-2950
▁laughed	-2951
▁mention	-2952
▁natural	-2953
▁raining	-2954
▁receive	-2955
▁results	-2956
▁similar	-2957
▁special	-2958
▁survive	-2959
▁trapped	-2960
▁washing	-2961
▁Children	-2962
▁feelings	-2963
▁involved	-2964
▁laughing	-2965
▁mistakes	-2966
▁recently	-2967
▁security	-2968
▁suddenly	-2969
▁supposed	-2970
▁carefully	-2971
▁classroom	-2972
▁computers	-2973
▁condition	-2974
▁explained	-2975
▁happiness	-2976
▁knowledge	-2977
▁necessary	-2978
▁principal	-2979
▁relations	-2980
▁population	-2981
▁recognized	-2982
▁opportunity	-2983
▁responsible	-2984
▁refrigerator	-2985
It	-2986
No	-2987
af	-2988
ma	-2989
og	-2990
sy	-2991
eed	-2992
ery	-2993
gan	-2994
had	-2995
hys	-2996
igs	-2997
iri	-2998
itz	-2999
izi	-3000
olf	-3001
oon	-3002
oul	-3003
sed	-3004
▁Ad	-3005
▁Me	-3006
▁Ne	-3007
▁Tw	-3008
▁bi	-3009
:30.	-3010
ager	-3011
cean	-3012
chie	-3013
head	-3014
ines	-3015
lace	-3016
lier	-3017
like	-3018
obby	-3019
rate	-3020
ural	-3021
uzou	-3022
vent	-3023
year	-3024
▁Cle	-3025
▁Dri	-3026
▁Mom	-3027
▁Nor	-3028
▁Sit	-3029
▁cir	-3030
▁dra	-3031
▁dut	-3032
▁emb	-3033
▁fac	-3034
▁ice	-3035
▁mis	-3036
▁oil	-3037
▁pet	-3038
▁sex	-3039
▁squ	-3040
▁ste	-3041
▁uni	-3042
▁var	-3043
▁ver	-3044
ables	-3045
ances	-3046
asing	-3047
cious	-3048
hemat	-3049
icted	-3050
ified	-3051
itive	-3052
light	-3053
ments	-3054
orses	-3055
umped	-3056
usion	-3057
▁Bill	-3058
▁Brit	-3059
▁Keep	-3060
▁Only	-3061
▁Tizi	-3062
▁Turk	-3063
▁Year	-3064
▁alar	-3065
▁arms	-3066
▁cute	-3067
▁desp	-3068
▁dire	-3069
▁exce	-3070
▁fant	-3071
▁farm	-3072
▁grad	-3073
▁hide	-3074
▁host	-3075
▁imag	-3076
▁poet	-3077
▁repe	-3078
▁rese	-3079
▁rice	-3080
▁rule	-3081
▁situ	-3082
▁sugg	-3083
▁task	-3084
▁taxi	-3085
▁upon	-3086
estine	-3087
ffered	-3088
idence	-3089
▁2006.	-3090
▁Ouzou	-3091
▁Sorry	-3092
▁achie	-3093
▁artic	-3094
▁blame	-3095
▁chose	-3096
▁cream	-3097
▁elect	-3098
▁exerc	-3099
▁fifty	-3100
▁final	-3101
▁habit	-3102
▁hobby	-3103
▁liber	-3104
▁persu	-3105
▁sharp	-3106
▁sight	-3107
▁stuff	-3108
▁verse	-3109
▁wound	-3110
ference	-3111
sperant	-3112
viously	-3113
▁Doctor	-3114
▁Father	-3115
▁absent	-3116
▁accomp	-3117
▁advent	-3118
▁cheese	-3119
▁choose	-3120
▁custom	-3121
▁demand	-3122
▁descri	-3123
▁destin	-3124
▁dipped	-3125
▁drives	-3126
▁filled	-3127
▁forced	-3128
▁horses	-3129
▁nearly	-3130
▁placed	-3131
▁seemed	-3132
▁silent	-3133
▁sleepy	-3134
▁smiled	-3135
▁sounds	-3136
▁century	-3137
▁details	-3138
▁earlier	-3139
▁express	-3140
▁factory	-3141
▁forgets	-3142
▁greeted	-3143
▁hearing	-3144
▁jealous	-3145
▁killing	-3146
▁machine	-3147
▁patient	-3148
▁pleased	-3149
▁regular	-3150
▁staying	-3151
▁stories	-3152
▁tickets	-3153
▁trusted	-3154
▁village	-3155
▁website	-3156
▁worried	-3157
▁Egyptian	-3158
▁accepted	-3159
▁annoying	-3160
▁anywhere	-3161
▁cheating	-3162
▁expected	-3163
▁released	-3164
▁suffered	-3165
▁teaching	-3166
▁traveled	-3167
▁upstairs	-3168
▁wondered	-3169
▁Palestine	-3170
▁apologize	-3171
▁delicious	-3172
▁destroyed	-3173
▁intention	-3174
▁newspaper	-3175
▁ourselves	-3176
▁respected	-3177
▁definitely	-3178
▁understood	-3179
▁relationship	-3180
__	-3181
ij	-3182
my	-3183
ru	-3184
sc	-3185
vi	-3186
za	-3187
ze	-3188
▁8	-3189
Yes	-3190
You	-3191
chi	-3192
dom	-3193
duc	-3194
hak	-3195
ibl	-3196
ief	-3197
ili	-3198
its	-3199
kay	-3200
mas	-3201
oll	-3202
oof	-3203
rap	-3204
rie	-3205
rog	-3206
ser	-3207
ugg	-3208
ume	-3209
ung	-3210
uri	-3211
yle	-3212
zen	-3213
▁10	-3214
▁Am	-3215
▁Oh	-3216
▁Os	-3217
▁Re	-3218
▁ow	-3219
ache	-3220
aked	-3221
aled	-3222
arah	-3223
ards	-3224
atch	-3225
bage	-3226
eper	-3227
gest	-3228
hada	-3229
icip	-3230
ises	-3231
itic	-3232
ivil	-3233
lies	-3234
rary	-3235
resh	-3236
rupt	-3237
time	-3238
vere	-3239
▁199	-3240
▁Ben	-3241
▁Cal	-3242
▁Cor	-3243
▁cal	-3244
▁cra	-3245
▁dip	-3246
▁due	-3247
▁fem	-3248
▁lad	-3249
▁lay	-3250
▁mot	-3251
▁piz	-3252
▁psy	-3253
▁rid	-3254
▁tal	-3255
▁wid	-3256
▁wis	-3257
▁yes	-3258
antly	-3259
arily	-3260
ented	-3261
ering	-3262
fered	-3263
hamed	-3264
hange	-3265
icide	-3266
idays	-3267
inary	-3268
ining	-3269
iriel	-3270
ittee	-3271
ralia	-3272
▁Each	-3273
▁Figs	-3274
▁Gree	-3275
▁June	-3276
▁ange	-3277
▁bare	-3278
▁beha	-3279
▁capt	-3280
▁coma	-3281
▁cool	-3282
▁crow	-3283
▁dare	-3284
▁earn	-3285
▁feet	-3286
▁flew	-3287
▁hadn	-3288
▁harm	-3289
▁hero	-3290
▁meal	-3291
▁ones	-3292
▁sand	-3293
▁scen	-3294
▁seek	-3295
▁sibl	-3296
▁skin	-3297
▁sons	-3298
▁soup	-3299
▁star	-3300
▁trad	-3301
▁wolf	-3302
ective	-3303
inated	-3304
ission	-3305
keeper	-3306
ourite	-3307
▁Fanta	-3308
▁Osaka	-3309
▁Peter	-3310
▁Sarah	-3311
▁Satur	-3312
▁Spain	-3313
▁ahead	-3314
▁alarm	-3315
▁benef	-3316
▁brave	-3317
▁breat	-3318
▁climb	-3319
▁confr	-3320
▁dying	-3321
▁encou	-3322
▁frequ	-3323
▁funny	-3324
▁gradu	-3325
▁heavy	-3326
▁oppos	-3327
▁organ	-3328
▁pleas	-3329
▁rains	-3330
▁satis	-3331
▁separ	-3332
▁space	-3333
▁super	-3334
▁veget	-3335
anation	-3336
itation	-3337
▁Jewish	-3338
▁assist	-3339
▁bottom	-3340
▁charac	-3341
▁crimin	-3342
▁explos	-3343
▁ground	-3344
▁joking	-3345
▁kissed	-3346
▁nobody	-3347
▁parked	-3348
▁polite	-3349
▁recomm	-3350
▁scient	-3351
▁simple	-3352
▁singer	-3353
▁tastes	-3354
▁victim	-3355
▁yellow	-3356
speranto	-3357
▁Correct	-3358
▁ability	-3359
▁amazing	-3360
▁answers	-3361
▁belongs	-3362
▁changes	-3363
▁checked	-3364
▁clearly	-3365
▁concent	-3366
▁covered	-3367
▁devoted	-3368
▁earthqu	-3369
▁garbage	-3370
▁injured	-3371
▁justice	-3372
▁medical	-3373
▁million	-3374
▁nearest	-3375
▁offered	-3376
▁reached	-3377
▁shahada	-3378
▁younger	-3379
▁Algerian	-3380
▁Internet	-3381
▁Saturday	-3382
▁Tomorrow	-3383
▁actually	-3384
▁admitted	-3385
▁attended	-3386
▁borrowed	-3387
▁clothing	-3388
▁deserves	-3389
▁director	-3390
▁greatest	-3391
▁handsome	-3392
▁intellig	-3393
▁mistaken	-3394
▁siblings	-3395
▁terrible	-3396
▁Americans	-3397
▁Australia	-3398
▁Yesterday	-3399
▁apartment	-3400
▁childhood	-3401
▁committee	-3402
▁favourite	-3403
▁following	-3404
▁mountains	-3405
▁performed	-3406
▁remembers	-3407
▁situation	-3408
fortunately	-3409
▁downstairs	-3410
▁shopkeeper	-3411
▁explanation	-3412
▁understands	-3413
▁disappointed	-3414
8.	-3415
kn	-3416
lu	-3417
ns	-3418
▁4	-3419
▁–	-3420
▁—	-3421
The	-3422
amm	-3423
arr	-3424
asc	-3425
auc	-3426
cha	-3427
ham	-3428
ker	-3429
key	-3430
lit	-3431
mad	-3432
ner	-3433
oro	-3434
pen	-3435
sen	-3436
ses	-3437
uko	-3438
upp	-3439
uts	-3440
▁Cl	-3441
▁ug	-3442
aint	-3443
atic	-3444
cert	-3445
elve	-3446
ency	-3447
gers	-3448
gery	-3449
ield	-3450
irds	-3451
itar	-3452
itiz	-3453
ives	-3454
mbol	-3455
onds	-3456
ples	-3457
ploy	-3458
rent	-3459
ycle	-3460
▁201	-3461
▁Lau	-3462
▁Man	-3463
▁Per	-3464
▁Ten	-3465
▁ban	-3466
▁cig	-3467
▁cur	-3468
▁dry	-3469
▁net	-3470
▁pot	-3471
▁rap	-3472
▁typ	-3473
▁val	-3474
▁vol	-3475
▁wet	-3476
acket	-3477
anced	-3478
anges	-3479
atoes	-3480
ators	-3481
aucet	-3482
ching	-3483
elebr	-3484
ength	-3485
heart	-3486
ising	-3487
issed	-3488
itled	-3489
lling	-3490
ouder	-3491
ratul	-3492
ribut	-3493
ument	-3494
useum	-3495
velop	-3496
▁From	-3497
▁None	-3498
▁Open	-3499
▁Pass	-3500
▁Tony	-3501
▁Yitz	-3502
▁bars	-3503
▁beat	-3504
▁bite	-3505
▁bull	-3506
▁circ	-3507
▁danc	-3508
▁drew	-3509
▁duty	-3510
▁ears	-3511
▁emer	-3512
▁fair	-3513
▁fasc	-3514
▁film	-3515
▁fing	-3516
▁fork	-3517
▁gate	-3518
▁gets	-3519
▁goal	-3520
▁gold	-3521
▁kick	-3522
▁lots	-3523
▁nine	-3524
▁pair	-3525
▁phys	-3526
▁prov	-3527
▁rare	-3528
▁sang	-3529
▁serv	-3530
▁ship	-3531
▁slap	-3532
▁sour	-3533
▁spir	-3534
▁stam	-3535
▁step	-3536
▁term	-3537
▁view	-3538
alling	-3539
arrass	-3540
lished	-3541
mother	-3542
ording	-3543
rength	-3544
urious	-3545
urther	-3546
▁Afric	-3547
▁Bible	-3548
▁Check	-3549
▁Watch	-3550
▁aband	-3551
▁acted	-3552
▁angel	-3553
▁bunch	-3554
▁capac	-3555
▁carry	-3556
▁citiz	-3557
▁civil	-3558
▁cover	-3559
▁event	-3560
▁forty	-3561
▁fresh	-3562
▁honey	-3563
▁hurts	-3564
▁incre	-3565
▁intro	-3566
▁lying	-3567
▁occup	-3568
▁offic	-3569
▁passw	-3570
▁photo	-3571
▁pizza	-3572
▁produ	-3573
▁raise	-3574
▁scene	-3575
▁split	-3576
▁stars	-3577
▁suitc	-3578
▁toler	-3579
ichever	-3580
ization	-3581
working	-3582
▁Laurie	-3583
▁Salima	-3584
▁acting	-3585
▁anyway	-3586
▁basket	-3587
▁battle	-3588
▁betray	-3589
▁bigger	-3590
▁boring	-3591
▁bother	-3592
▁celebr	-3593
▁critic	-3594
▁excell	-3595
▁faster	-3596
▁faucet	-3597
▁female	-3598
▁fought	-3599
▁fright	-3600
▁harder	-3601
▁houses	-3602
▁kicked	-3603
▁killer	-3604
▁likely	-3605
▁middle	-3606
▁museum	-3607
▁pulled	-3608
▁punish	-3609
▁regret	-3610
▁reward	-3611
▁ruined	-3612
▁salary	-3613
▁served	-3614
▁severe	-3615
▁starts	-3616
▁states	-3617
▁suspic	-3618
▁symbol	-3619
▁theory	-3620
▁videos	-3621
ongratul	-3622
▁England	-3623
▁Israeli	-3624
▁Yitzhak	-3625
▁advance	-3626
▁advised	-3627
▁article	-3628
▁ashamed	-3629
▁biology	-3630
▁concert	-3631
▁convers	-3632
▁courage	-3633
▁develop	-3634
▁disease	-3635
▁example	-3636
▁failure	-3637
▁fantasy	-3638
▁fishing	-3639
▁forever	-3640
▁improve	-3641
▁meaning	-3642
▁mission	-3643
▁numbers	-3644
▁replied	-3645
▁request	-3646
▁shocked	-3647
▁society	-3648
▁suicide	-3649
▁surgery	-3650
▁swallow	-3651
▁theater	-3652
▁yelling	-3653
stitution	-3654
▁Whatever	-3655
▁attacked	-3656
▁bathroom	-3657
▁exercise	-3658
▁fighting	-3659
▁fluently	-3660
▁friendly	-3661
▁magazine	-3662
▁patients	-3663
▁politics	-3664
▁practice	-3665
▁progress	-3666
▁strength	-3667
▁thoughts	-3668
▁Christmas	-3669
▁Esperanto	-3670
▁attempted	-3671
▁certainly	-3672
▁converted	-3673
▁embarrass	-3674
▁expressed	-3675
▁happening	-3676
▁president	-3677
▁whichever	-3678
▁Christians	-3679
▁forgetting	-3680
▁frequently	-3681
▁protection	-3682
▁vegetables	-3683
▁comfortable	-3684
▁concentrate	-3685
▁destination	-3686
▁grandmother	-3687
di	-3688
gi	-3689
me	-3690
sh	-3691
te	-3692
ym	-3693
▁5	-3694
But	-3695
ani	-3696
che	-3697
eks	-3698
gic	-3699
hod	-3700
ibi	-3701
ils	-3702
ior	-3703
irm	-3704
ixt	-3705
lax	-3706
lex	-3707
oms	-3708
pet	-3709
ria	-3710
str	-3711
ucy	-3712
uji	-3713
ums	-3714
urs	-3715
vol	-3716
▁0.	-3717
▁24	-3718
▁Ab	-3719
▁Ah	-3720
▁CD	-3721
▁Fe	-3722
▁Ir	-3723
▁Ob	-3724
▁Pl	-3725
▁Te	-3726
▁da	-3727
aced	-3728
ador	-3729
aily	-3730
athy	-3731
ault	-3732
cher	-3733
coln	-3734
ders	-3735
esus	-3736
haps	-3737
inda	-3738
ingu	-3739
ldom	-3740
liar	-3741
llen	-3742
mail	-3743
meri	-3744
ners	-3745
ober	-3746
omed	-3747
ownt	-3748
rian	-3749
rors	-3750
umed	-3751
▁Day	-3752
▁Hit	-3753
▁Lin	-3754
▁Mam	-3755
▁Qur	-3756
▁Sat	-3757
▁Say	-3758
▁Sir	-3759
▁Tim	-3760
▁Tor	-3761
▁ace	-3762
▁ali	-3763
▁asp	-3764
▁bes	-3765
▁ble	-3766
▁bur	-3767
▁ess	-3768
▁gym	-3769
▁hij	-3770
▁jam	-3771
▁kil	-3772
▁lic	-3773
▁lif	-3774
▁mal	-3775
▁neg	-3776
▁noo	-3777
▁reb	-3778
▁ren	-3779
▁sac	-3780
▁sig	-3781
▁ski	-3782
▁wit	-3783
agger	-3784
arett	-3785
ashed	-3786
atric	-3787
cture	-3788
elled	-3789
ender	-3790
epend	-3791
icken	-3792
icket	-3793
igned	-3794
iling	-3795
ional	-3796
istan	-3797
itter	-3798
itude	-3799
mates	-3800
mbles	-3801
ongue	-3802
opeks	-3803
ounce	-3804
rific	-3805
unted	-3806
uthor	-3807
venge	-3808
while	-3809
▁Fuck	-3810
▁Jews	-3811
▁Kore	-3812
▁Last	-3813
▁Lucy	-3814
▁More	-3815
▁Moul	-3816
▁Pres	-3817
▁Rami	-3818
▁Work	-3819
▁acqu	-3820
▁asks	-3821
▁beer	-3822
▁bell	-3823
▁clou	-3824
▁deaf	-3825
▁diet	-3826
▁drow	-3827
▁fash	-3828
▁gang	-3829
▁hill	-3830
▁jobs	-3831
▁laun	-3832
▁liar	-3833
▁mass	-3834
▁mult	-3835
▁rely	-3836
▁rock	-3837
▁roof	-3838
▁runs	-3839
▁sens	-3840
▁summ	-3841
▁sung	-3842
▁tens	-3843
▁ugly	-3844
▁wars	-3845
▁weap	-3846
▁woke	-3847
cially	-3848
hanged	-3849
icated	-3850
jected	-3851
▁2:30.	-3852
▁Birds	-3853
▁Jesus	-3854
▁Linda	-3855
▁Shall	-3856
▁Since	-3857
▁Think	-3858
▁Trump	-3859
▁Write	-3860
▁adapt	-3861
▁admit	-3862
▁among	-3863
▁anger	-3864
▁argue	-3865
▁block	-3866
▁blond	-3867
▁burns	-3868
▁cares	-3869
▁catch	-3870
▁cause	-3871
▁chief	-3872
▁daily	-3873
▁debts	-3874
▁disag	-3875
▁downt	-3876
▁estab	-3877
▁force	-3878
▁group	-3879
▁homes	-3880
▁influ	-3881
▁match	-3882
▁meant	-3883
▁offer	-3884
▁plans	-3885
▁poker	-3886
▁pound	-3887
▁relax	-3888
▁reply	-3889
▁reput	-3890
▁sandw	-3891
▁shock	-3892
▁shout	-3893
▁sixty	-3894
▁socks	-3895
▁steal	-3896
▁stone	-3897
▁storm	-3898
▁straw	-3899
▁swear	-3900
▁swims	-3901
▁tears	-3902
▁throw	-3903
▁walks	-3904
▁weeks	-3905
entions	-3906
▁Mayuko	-3907
▁across	-3908
▁admire	-3909
▁affect	-3910
▁animal	-3911
▁applic	-3912
▁artist	-3913
▁barely	-3914
▁beginn	-3915
▁belief	-3916
▁closer	-3917
▁collap	-3918
▁employ	-3919
▁errors	-3920
▁garage	-3921
▁guitar	-3922
▁hardly	-3923
▁headed	-3924
▁incred	-3925
▁indust	-3926
▁larger	-3927
▁length	-3928
▁losing	-3929
▁mental	-3930
▁normal	-3931
▁phoned	-3932
▁phones	-3933
▁player	-3934
▁policy	-3935
▁prayer	-3936
▁prices	-3937
▁proper	-3938
▁psychi	-3939
▁pushed	-3940
▁repeat	-3941
▁saving	-3942
▁seldom	-3943
▁series	-3944
▁settle	-3945
▁shower	-3946
▁sighed	-3947
▁sooner	-3948
▁sorrow	-3949
▁spirit	-3950
▁spread	-3951
▁temper	-3952
▁tongue	-3953
▁twelve	-3954
▁voices	-3955
▁warned	-3956
▁weight	-3957
▁writes	-3958
atically	-3959
hematics	-3960
▁British	-3961
▁Lincoln	-3962
▁Mammeri	-3963
▁Mouloud	-3964
▁Perhaps	-3965
▁Russian	-3966
▁Smoking	-3967
▁Someone	-3968
▁Without	-3969
▁assault	-3970
▁burning	-3971
▁carried	-3972
▁challen	-3973
▁cousins	-3974
▁culture	-3975
▁dancing	-3976
▁enemies	-3977
▁exagger	-3978
▁fashion	-3979
▁fucking	-3980
▁further	-3981
▁haunted	-3982
▁healthy	-3983
▁holiday	-3984
▁insects	-3985
▁introdu	-3986
▁knocked	-3987
▁liberty	-3988
▁matters	-3989
▁oranges	-3990
▁ordered	-3991
▁plastic	-3992
▁pretend	-3993
▁profess	-3994
▁program	-3995
▁punched	-3996
▁quality	-3997
▁realize	-3998
▁singing	-3999
▁sisters	-4000
▁studies	-4001
▁suppose	-4002
▁teaches	-4003
▁thanked	-4004
▁various	-4005
▁victory	-4006
▁achieved	-4007
▁cigarett	-4008
▁comprise	-4009
▁consists	-4010
▁contrary	-4011
▁criminal	-4012
▁deserved	-4013
▁downtown	-4014
▁entitled	-4015
▁familiar	-4016
▁freedoms	-4017
▁headache	-4018
▁incident	-4019
▁kindness	-4020
▁knocking	-4021
▁reported	-4022
▁tolerant	-4023
▁universe	-4024
▁whenever	-4025
▁Goodnight	-4026
▁President	-4027
▁classical	-4028
▁comprised	-4029
▁concerned	-4030
▁depressed	-4031
▁discussed	-4032
▁education	-4033
▁exchanged	-4034
▁forgotten	-4035
▁including	-4036
▁interests	-4037
▁policeman	-4038
▁recognize	-4039
▁recommend	-4040
▁regularly	-4041
▁satisfied	-4042
▁sentenced	-4043
▁swallowed	-4044
▁traveling	-4045
▁assistance	-4046
▁collecting	-4047
▁conference	-4048
▁mysterious	-4049
▁reputation	-4050
▁substitute	-4051
▁worthwhile	-4052
▁criticizing	-4053
▁nationality	-4054
▁temperature	-4055
▁translation	-4056
▁conversation	-4057
"?	-4058
,"	-4059
1.	-4060
5.	-4061
99	-4062
SA	-4063
bi	-4064
ka	-4065
to	-4066
yd	-4067
▁7	-4068
:30	-4069
aff	-4070
ala	-4071
ama	-4072
att	-4073
ban	-4074
bye	-4075
chn	-4076
cot	-4077
cut	-4078
dow	-4079
ees	-4080
hab	-4081
hai	-4082
iff	-4083
ila	-4084
iny	-4085
lif	-4086
mel	-4087
omb	-4088
orc	-4089
ply	-4090
rel	-4091
rid	-4092
thy	-4093
ton	-4094
umn	-4095
val	-4096
▁25	-4097
▁96	-4098
▁Gu	-4099
▁Mt	-4100
▁Su	-4101
▁ep	-4102
acha	-4103
aila	-4104
alem	-4105
anic	-4106
ases	-4107
asso	-4108
atho	-4109
bove	-4110
eral	-4111
erus	-4112
exas	-4113
exic	-4114
fact	-4115
geon	-4116
hess	-4117
ibly	-4118
igin	-4119
iles	-4120
ilet	-4121
ires	-4122
lass	-4123
lder	-4124
obal	-4125
osal	-4126
oshi	-4127
otos	-4128
over	-4129
rief	-4130
ults	-4131
ulty	-4132
zing	-4133
▁192	-4134
▁Ant	-4135
▁Cut	-4136
▁Dep	-4137
▁Fin	-4138
▁Har	-4139
▁Hun	-4140
▁Inv	-4141
▁Mrs	-4142
▁Pic	-4143
▁Rob	-4144
▁Rom	-4145
▁Sil	-4146
▁Vis	-4147
▁aim	-4148
▁anx	-4149
▁dig	-4150
▁env	-4151
▁fla	-4152
▁gam	-4153
▁gas	-4154
▁glo	-4155
▁gra	-4156
▁hid	-4157
▁hig	-4158
▁hug	-4159
▁lim	-4160
▁nin	-4161
▁owe	-4162
▁pap	-4163
▁pup	-4164
▁spo	-4165
▁tor	-4166
▁unc	-4167
▁und	-4168
▁uns	-4169
▁web	-4170
▁yen	-4171
▁zoo	-4172
allow	-4173
arant	-4174
cence	-4175
ening	-4176
essed	-4177
inent	-4178
inist	-4179
ivity	-4180
known	-4181
lined	-4182
onely	-4183
ooper	-4184
orter	-4185
ption	-4186
raphy	-4187
razil	-4188
ribly	-4189
under	-4190
vator	-4191
▁Anne	-4192
▁Book	-4193
▁Cont	-4194
▁Fuji	-4195
▁King	-4196
▁Know	-4197
▁Mars	-4198
▁Must	-4199
▁Next	-4200
▁Once	-4201
▁Pers	-4202
▁Rome	-4203
▁Time	-4204
▁Wood	-4205
▁band	-4206
▁bapt	-4207
▁cave	-4208
▁chap	-4209
▁corn	-4210
▁dece	-4211
▁dish	-4212
▁diss	-4213
▁dump	-4214
▁ease	-4215
▁effe	-4216
▁embr	-4217
▁feed	-4218
▁fort	-4219
▁golf	-4220
▁hell	-4221
▁hire	-4222
▁hook	-4223
▁hung	-4224
▁joke	-4225
▁jump	-4226
▁laid	-4227
▁legs	-4228
▁noon	-4229
▁okay	-4230
▁owns	-4231
▁peel	-4232
▁pron	-4233
▁race	-4234
▁rose	-4235
▁sixt	-4236
▁size	-4237
▁spot	-4238
▁stri	-4239
▁symp	-4240
▁tiny	-4241
▁unex	-4242
▁uses	-4243
▁vote	-4244
▁wept	-4245
ateful	-4246
ctions	-4247
lasses	-4248
omeday	-4249
thirty	-4250
though	-4251
urance	-4252
▁3,000	-4253
▁Above	-4254
▁Arabs	-4255
▁Brown	-4256
▁Brush	-4257
▁Clean	-4258
▁Close	-4259
▁Georg	-4260
▁Grand	-4261
▁Haven	-4262
▁Italy	-4263
▁Jerus	-4264
▁Langu	-4265
▁Mexic	-4266
▁Quran	-4267
▁State	-4268
▁Timmy	-4269
▁Water	-4270
▁added	-4271
▁autom	-4272
▁avoid	-4273
▁awake	-4274
▁banan	-4275
▁below	-4276
▁board	-4277
▁candy	-4278
▁chess	-4279
▁clubs	-4280
▁cured	-4281
▁delet	-4282
▁democ	-4283
▁depri	-4284
▁devil	-4285
▁dozen	-4286
▁enter	-4287
▁field	-4288
▁finan	-4289
▁finds	-4290
▁guest	-4291
▁hijab	-4292
▁hired	-4293
▁hopes	-4294
▁illeg	-4295
▁indis	-4296
▁memor	-4297
▁moder	-4298
▁mouse	-4299
▁names	-4300
▁ocean	-4301
▁pants	-4302
▁paran	-4303
▁penal	-4304
▁postp	-4305
▁reach	-4306
▁rough	-4307
▁round	-4308
▁shame	-4309
▁shows	-4310
▁spots	-4311
▁techn	-4312
▁tooth	-4313
▁total	-4314
▁waste	-4315
▁youth	-4316
achache	-4317
ailable	-4318
assador	-4319
ciation	-4320
hearted	-4321
orcycle	-4322
▁Brazil	-4323
▁Change	-4324
▁George	-4325
▁Korean	-4326
▁Though	-4327
▁author	-4328
▁autumn	-4329
▁beauty	-4330
▁bright	-4331
▁charge	-4332
▁clever	-4333
▁clouds	-4334
▁compet	-4335
▁cooked	-4336
▁cousin	-4337
▁deeply	-4338
▁denied	-4339
▁determ	-4340
▁distin	-4341
▁double	-4342
▁dreamt	-4343
▁effort	-4344
▁engine	-4345
▁escape	-4346
▁extent	-4347
▁former	-4348
▁freely	-4349
▁fridge	-4350
▁giving	-4351
▁handle	-4352
▁heaven	-4353
▁humans	-4354
▁hunger	-4355
▁impact	-4356
▁indeed	-4357
▁injury	-4358
▁itself	-4359
▁kopeks	-4360
▁leader	-4361
▁lonely	-4362
▁method	-4363
▁notice	-4364
▁origin	-4365
▁photos	-4366
▁pillar	-4367
▁poetry	-4368
▁record	-4369
▁remain	-4370
▁riding	-4371
▁season	-4372
▁shadow	-4373
▁shared	-4374
▁simply	-4375
▁smells	-4376
▁spends	-4377
▁strang	-4378
▁strict	-4379
▁ticked	-4380
▁toilet	-4381
▁violin	-4382
▁wealth	-4383
▁Another	-4384
▁Muiriel	-4385
▁Picasso	-4386
▁Shouldn	-4387
▁Turkish	-4388
▁actions	-4389
▁citizen	-4390
▁contain	-4391
▁crashed	-4392
▁crowded	-4393
▁curious	-4394
▁depends	-4395
▁efforts	-4396
▁escaped	-4397
▁excited	-4398
▁growing	-4399
▁guarant	-4400
▁heavier	-4401
▁helping	-4402
▁holding	-4403
▁ignored	-4404
▁kicking	-4405
▁lecture	-4406
▁license	-4407
▁obvious	-4408
▁offence	-4409
▁require	-4410
▁ruining	-4411
▁savings	-4412
▁screams	-4413
▁seconds	-4414
▁selfish	-4415
▁shorter	-4416
▁sixteen	-4417
▁smaller	-4418
▁someday	-4419
▁speaker	-4420
▁stomach	-4421
▁teasing	-4422
▁tension	-4423
▁ticking	-4424
▁totally	-4425
▁trained	-4426
▁violent	-4427
▁welcome	-4428
▁workers	-4429
itionally	-4430
▁Whenever	-4431
▁benefits	-4432
▁betrayed	-4433
▁capacity	-4434
▁cleaning	-4435
▁confront	-4436
▁cultural	-4437
▁demanded	-4438
▁disagree	-4439
▁dumpster	-4440
▁election	-4441
▁elevator	-4442
▁evidence	-4443
▁expenses	-4444
▁extraord	-4445
▁grateful	-4446
▁holidays	-4447
▁improved	-4448
▁includes	-4449
▁independ	-4450
▁murdered	-4451
▁opposite	-4452
▁particip	-4453
▁personal	-4454
▁pleasure	-4455
▁potatoes	-4456
▁proposal	-4457
▁required	-4458
▁screamed	-4459
▁searched	-4460
▁strawber	-4461
▁suitcase	-4462
▁summoned	-4463
▁supports	-4464
▁survived	-4465
▁transfer	-4466
▁violence	-4467
▁watermel	-4468
▁wherever	-4469
▁Jerusalem	-4470
▁Obviously	-4471
▁adventure	-4472
▁alcoholic	-4473
▁available	-4474
▁character	-4475
▁collapsed	-4476
▁contribut	-4477
▁daughters	-4478
▁excellent	-4479
▁exclaimed	-4480
▁insurance	-4481
▁interrupt	-4482
▁interview	-4483
▁neighbors	-4484
▁persuaded	-4485
▁prominent	-4486
▁recovered	-4487
▁resembles	-4488
▁screaming	-4489
▁searching	-4490
▁sensitive	-4491
▁succeeded	-4492
▁suggested	-4493
▁Depression	-4494
▁ambassador	-4495
▁collection	-4496
▁discovered	-4497
▁encouraged	-4498
▁intentions	-4499
▁motorcycle	-4500
▁punishment	-4501
▁successful	-4502
▁sunglasses	-4503
▁suspicious	-4504
▁terrorists	-4505
▁unexpected	-4506
▁yourselves	-4507
▁examination	-4508
▁psychiatric	-4509
▁questioning	-4510
▁stomachache	-4511
▁translating	-4512
▁hospitalized	-4513
▁understanding	-4514
▁unfortunately	-4515
Mu	-4516
bb	-4517
cm	-4518
ev	-4519
gr	-4520
gu	-4521
uh	-4522
wr	-4523
yn	-4524
yr	-4525
▁?	-4526
▁i	-4527
▁€	-4528
aed	-4529
agn	-4530
ago	-4531
ald	-4532
arf	-4533
azz	-4534
bag	-4535
bee	-4536
bey	-4537
bid	-4538
cel	-4539
cue	-4540
cul	-4541
dam	-4542
eah	-4543
erg	-4544
ern	-4545
ero	-4546
fia	-4547
for	-4548
hik	-4549
hil	-4550
hiz	-4551
hop	-4552
ikh	-4553
iko	-4554
imp	-4555
iod	-4556
ipe	-4557
lin	-4558
liv	-4559
ney	-4560
oes	-4561
ole	-4562
onc	-4563
oos	-4564
oot	-4565
ppy	-4566
sit	-4567
tha	-4568
udy	-4569
ulf	-4570
uly	-4571
urb	-4572
▁16	-4573
▁17	-4574
▁18	-4575
▁99	-4576
▁En	-4577
▁Or	-4578
▁Pa	-4579
▁Qu	-4580
▁Sa	-4581
▁Sy	-4582
▁ur	-4583
..."	-4584
What	-4585
acle	-4586
adem	-4587
aeda	-4588
aker	-4589
ango	-4590
ansl	-4591
athe	-4592
bing	-4593
case	-4594
cest	-4595
cies	-4596
cing	-4597
duct	-4598
edia	-4599
educ	-4600
erry	-4601
evit	-4602
feat	-4603
fers	-4604
fted	-4605
gged	-4606
ghan	-4607
hang	-4608
hern	-4609
host	-4610
iers	-4611
ilal	-4612
illy	-4613
ilos	-4614
iron	-4615
irts	-4616
isis	-4617
itch	-4618
lict	-4619
look	-4620
mate	-4621
nsic	-4622
oker	-4623
oral	-4624
oved	-4625
phab	-4626
ping	-4627
ques	-4628
racy	-4629
renc	-4630
rill	-4631
sequ	-4632
star	-4633
tled	-4634
ugur	-4635
uled	-4636
ware	-4637
well	-4638
▁100	-4639
▁Acc	-4640
▁Adm	-4641
▁Ask	-4642
▁Atl	-4643
▁Att	-4644
▁Bud	-4645
▁Def	-4646
▁Dem	-4647
▁Ice	-4648
▁Lar	-4649
▁Mat	-4650
▁Rep	-4651
▁Ter	-4652
▁USA	-4653
▁Ven	-4654
▁Won	-4655
▁adj	-4656
▁bug	-4657
▁cla	-4658
▁dat	-4659
▁ded	-4660
▁deg	-4661
▁doc	-4662
▁fan	-4663
▁fed	-4664
▁fox	-4665
▁fro	-4666
▁gre	-4667
▁hyd	-4668
▁low	-4669
▁mic	-4670
▁mud	-4671
▁nut	-4672
▁obs	-4673
▁phr	-4674
▁pub	-4675
▁rab	-4676
▁rot	-4677
▁rub	-4678
▁sen	-4679
▁spy	-4680
▁sue	-4681
▁tar	-4682
▁tip	-4683
▁tow	-4684
▁toy	-4685
▁tun	-4686
▁ult	-4687
▁unp	-4688
▁upp	-4689
acher	-4690
aging	-4691
alled	-4692
anted	-4693
arten	-4694
cient	-4695
etime	-4696
heist	-4697
icago	-4698
icate	-4699
ician	-4700
icies	-4701
ience	-4702
iform	-4703
iforn	-4704
imate	-4705
isbee	-4706
isted	-4707
itary	-4708
liked	-4709
ollow	-4710
olute	-4711
olves	-4712
oring	-4713
ribes	-4714
rices	-4715
rogen	-4716
tight	-4717
ulous	-4718
uries	-4719
▁0.99	-4720
▁8:30	-4721
▁Char	-4722
▁Comp	-4723
▁Didn	-4724
▁Educ	-4725
▁Fear	-4726
▁Find	-4727
▁Fred	-4728
▁High	-4729
▁Iran	-4730
▁Like	-4731
▁Long	-4732
▁Part	-4733
▁Pick	-4734
▁Sapp	-4735
▁Scot	-4736
▁Sikh	-4737
▁asso	-4738
▁bast	-4739
▁cart	-4740
▁cash	-4741
▁date	-4742
▁dawn	-4743
▁dent	-4744
▁dess	-4745
▁diam	-4746
▁dign	-4747
▁drop	-4748
▁dude	-4749
▁dumb	-4750
▁emot	-4751
▁empt	-4752
▁ends	-4753
▁euro	-4754
▁evil	-4755
▁fate	-4756
▁fill	-4757
▁flag	-4758
▁fled	-4759
▁fulf	-4760
▁hast	-4761
▁isol	-4762
▁jazz	-4763
▁lack	-4764
▁lent	-4765
▁lock	-4766
▁main	-4767
▁meas	-4768
▁merc	-4769
▁nerv	-4770
▁nons	-4771
▁note	-4772
▁obey	-4773
▁oper	-4774
▁pale	-4775
▁perm	-4776
▁port	-4777
▁rang	-4778
▁sale	-4779
▁salt	-4780
▁seaw	-4781
▁site	-4782
▁skip	-4783
▁snee	-4784
▁spec	-4785
▁stun	-4786
▁tatt	-4787
▁teen	-4788
▁temp	-4789
▁tone	-4790
▁tool	-4791
▁tort	-4792
▁trap	-4793
▁vase	-4794
▁wild	-4795
aching	-4796
antage	-4797
atient	-4798
cience	-4799
engers	-4800
ferent	-4801
ficial	-4802
hammad	-4803
ifteen	-4804
ilosop	-4805
indled	-4806
issors	-4807
itions	-4808
phabet	-4809
ribute	-4810
usting	-4811
vering	-4812
▁Bilal	-4813
▁Bless	-4814
▁Carry	-4815
▁Clear	-4816
▁Drive	-4817
▁Frank	-4818
▁Grace	-4819
▁Greek	-4820
▁Jugur	-4821
▁Kenji	-4822
▁Music	-4823
▁Ocean	-4824
▁Peace	-4825
▁Right	-4826
▁Shang	-4827
▁Smith	-4828
▁Stand	-4829
▁Strip	-4830
▁Texas	-4831
▁Visit	-4832
▁alibi	-4833
▁arbit	-4834
▁attic	-4835
▁badly	-4836
▁based	-4837
▁bills	-4838
▁blank	-4839
▁bleed	-4840
▁brief	-4841
▁brown	-4842
▁cheap	-4843
▁colon	-4844
▁couch	-4845
▁cough	-4846
▁court	-4847
▁dirty	-4848
▁enorm	-4849
▁facts	-4850
▁fever	-4851
▁filed	-4852
▁gated	-4853
▁ghost	-4854
▁goods	-4855
▁gramm	-4856
▁grass	-4857
▁hesit	-4858
▁indif	-4859
▁indiv	-4860
▁legal	-4861
▁lover	-4862
▁maths	-4863
▁miles	-4864
▁noobs	-4865
▁occur	-4866
▁poems	-4867
▁punch	-4868
▁raped	-4869
▁reads	-4870
▁revol	-4871
▁rooms	-4872
▁roses	-4873
▁scale	-4874
▁scare	-4875
▁sched	-4876
▁scold	-4877
▁scrat	-4878
▁seats	-4879
▁serve	-4880
▁shake	-4881
▁sheep	-4882
▁smile	-4883
▁speed	-4884
▁stalk	-4885
▁stick	-4886
▁stops	-4887
▁strip	-4888
▁style	-4889
▁sunny	-4890
▁ticks	-4891
▁tight	-4892
▁topic	-4893
▁trade	-4894
▁trick	-4895
▁troub	-4896
▁turns	-4897
▁upper	-4898
▁waved	-4899
▁waves	-4900
▁weigh	-4901
ability	-4902
ifornia	-4903
ilities	-4904
olutely	-4905
ritious	-4906
ruction	-4907
sidered	-4908
venteen	-4909
▁Afghan	-4910
▁Africa	-4911
▁Almost	-4912
▁Always	-4913
▁Better	-4914
▁Either	-4915
▁Ferenc	-4916
▁Follow	-4917
▁Greece	-4918
▁Hallow	-4919
▁Living	-4920
▁Mexico	-4921
▁Prices	-4922
▁Things	-4923
▁Venice	-4924
▁abused	-4925
▁agrees	-4926
▁aliens	-4927
▁amount	-4928
▁ancest	-4929
▁assume	-4930
▁begged	-4931
▁behavi	-4932
▁beings	-4933
▁beside	-4934
▁calcul	-4935
▁career	-4936
▁carpet	-4937
▁chosen	-4938
▁cities	-4939
▁closet	-4940
▁corner	-4941
▁coward	-4942
▁crisis	-4943
▁damage	-4944
▁danced	-4945
▁defeat	-4946
▁defend	-4947
▁desire	-4948
▁dialed	-4949
▁disres	-4950
▁easier	-4951
▁ending	-4952
▁excuse	-4953
▁finger	-4954
▁forbid	-4955
▁forums	-4956
▁fundam	-4957
▁gloves	-4958
▁golden	-4959
▁horror	-4960
▁hugged	-4961
▁ideals	-4962
▁indisp	-4963
▁inevit	-4964
▁jacket	-4965
▁joined	-4966
▁jumped	-4967
▁ladder	-4968
▁lights	-4969
▁louder	-4970
▁manage	-4971
▁master	-4972
▁modern	-4973
▁object	-4974
▁period	-4975
▁pieces	-4976
▁pissed	-4977
▁places	-4978
▁plenty	-4979
▁produc	-4980
▁rabbit	-4981
▁remark	-4982
▁resear	-4983
▁reserv	-4984
▁resign	-4985
▁robber	-4986
▁silver	-4987
▁smiles	-4988
▁smoker	-4989
▁snakes	-4990
▁sprang	-4991
▁stamps	-4992
▁stared	-4993
▁stress	-4994
▁strugg	-4995
▁suffer	-4996
▁sunset	-4997
▁supper	-4998
▁target	-4999
▁temple	-5000
▁tragic	-5001
▁trains	-5002
▁versed	-5003
▁wisdom	-5004
▁wishes	-5005
educated	-5006
ergarten	-5007
ilingual	-5008
iversary	-5009
▁Chicago	-5010
▁Driving	-5011
▁Falling	-5012
▁Finally	-5013
▁Persian	-5014
▁Sapporo	-5015
▁Silence	-5016
▁Turkmen	-5017
▁Twitter	-5018
▁Whoever	-5019
▁adapted	-5020
▁anxious	-5021
▁apology	-5022
▁arrival	-5023
▁attacks	-5024
▁bananas	-5025
▁biggest	-5026
▁breathe	-5027
▁capable	-5028
▁careful	-5029
▁chapter	-5030
▁charmed	-5031
▁cheaper	-5032
▁claimed	-5033
▁closely	-5034
▁complim	-5035
▁consent	-5036
▁cookies	-5037
▁couples	-5038
▁cricket	-5039
▁crushed	-5040
▁current	-5041
▁deleted	-5042
▁dessert	-5043
▁digging	-5044
▁dignity	-5045
▁dislike	-5046
▁distant	-5047
▁doctors	-5048
▁emerged	-5049
▁follows	-5050
▁founded	-5051
▁general	-5052
▁happily	-5053
▁housing	-5054
▁illegal	-5055
▁imagine	-5056
▁largest	-5057
▁lessons	-5058
▁listens	-5059
▁managed	-5060
▁manager	-5061
▁miracle	-5062
▁mothers	-5063
▁nations	-5064
▁neither	-5065
▁nervous	-5066
▁nursing	-5067
▁painful	-5068
▁percent	-5069
▁physics	-5070
▁pianist	-5071
▁pillows	-5072
▁praying	-5073
▁prevent	-5074
▁quietly	-5075
▁reasons	-5076
▁reminds	-5077
▁retired	-5078
▁revenge	-5079
▁section	-5080
▁selling	-5081
▁settled	-5082
▁spilled	-5083
▁streets	-5084
▁suggest	-5085
▁surgeon	-5086
▁tallest	-5087
▁thunder	-5088
▁tracked	-5089
▁uniform	-5090
▁univers	-5091
▁victims	-5092
▁watches	-5093
▁weapons	-5094
▁willing	-5095
▁witness	-5096
▁wounded	-5097
▁Although	-5098
▁European	-5099
▁Investig	-5100
▁Jugurtha	-5101
▁Muhammad	-5102
▁Somebody	-5103
▁accompan	-5104
▁addicted	-5105
▁alphabet	-5106
▁basement	-5107
▁changing	-5108
▁conflict	-5109
▁constant	-5110
▁continue	-5111
▁convince	-5112
▁describe	-5113
▁directly	-5114
▁disliked	-5115
▁educated	-5116
▁expelled	-5117
▁eyesight	-5118
▁families	-5119
▁forensic	-5120
▁hundreds	-5121
▁hydrogen	-5122
▁industry	-5123
▁injuries	-5124
▁insisted	-5125
▁isolated	-5126
▁midnight	-5127
▁negative	-5128
▁opinions	-5129
▁paranoid	-5130
▁password	-5131
▁philosop	-5132
▁policies	-5133
▁property	-5134
▁provided	-5135
▁punished	-5136
▁resulted	-5137
▁sandwich	-5138
▁scissors	-5139
▁shameful	-5140
▁solution	-5141
▁suitable	-5142
▁swindled	-5143
▁teenager	-5144
▁terribly	-5145
▁Algerians	-5146
▁Education	-5147
▁Halloween	-5148
▁abandoned	-5149
▁according	-5150
▁addressed	-5151
▁answering	-5152
▁assaulted	-5153
▁attracted	-5154
▁beginning	-5155
▁briefcase	-5156
▁congratul	-5157
▁dedicated	-5158
▁detective	-5159
▁discovery	-5160
▁employees	-5161
▁establish	-5162
▁existence	-5163
▁explosive	-5164
▁forgetful	-5165
▁graduated	-5166
▁guarantee	-5167
▁impatient	-5168
▁introduce	-5169
▁literally	-5170
▁neighbour	-5171
▁obviously	-5172
▁paintings	-5173
▁perfectly	-5174
▁practiced	-5175
▁religions	-5176
▁scheduled	-5177
▁seventeen	-5178
▁suffering	-5179
▁California	-5180
▁absolutely	-5181
▁alcoholics	-5182
▁appearance	-5183
▁basketball	-5184
▁considered	-5185
▁constantly	-5186
▁conviction	-5187
▁difficulty	-5188
▁discussion	-5189
▁earthquake	-5190
▁frightened	-5191
▁importance	-5192
▁impression	-5193
▁incredibly	-5194
▁influenced	-5195
▁invitation	-5196
▁literature	-5197
▁networking	-5198
▁nutritious	-5199
▁practising	-5200
▁scientific	-5201
▁threatened	-5202
▁translator	-5203
▁watermelon	-5204
▁Afghanistan	-5205
▁anniversary	-5206
▁application	-5207
▁communities	-5208
▁complaining	-5209
▁earthquakes	-5210
▁embarrassed	-5211
▁experienced	-5212
▁fundamental	-5213
▁generations	-5214
▁independent	-5215
▁indifferent	-5216
▁intelligent	-5217
▁interviewed	-5218
▁mathematics	-5219
▁personality	-5220
▁reservation	-5221
▁disrespected	-5222
▁economically	-5223
▁intelligence	-5224
▁kindergarten	-5225
▁multilingual	-5226
▁Investigators	-5227
▁intentionally	-5228
!!	-5229
",	-5230
'.	-5231
0'	-5232
2.	-5233
9.	-5234
As	-5235
BT	-5236
Th	-5237
To	-5238
do	-5239
go	-5240
lo	-5241
ox	-5242
ta	-5243
xy	-5244
ya	-5245
zz	-5246
▁X	-5247
11.	-5248
30.	-5249
GBT	-5250
Not	-5251
Sal	-5252
acu	-5253
amn	-5254
amu	-5255
anu	-5256
aro	-5257
awa	-5258
bel	-5259
cat	-5260
cem	-5261
dry	-5262
edy	-5263
ets	-5264
gen	-5265
gun	-5266
hic	-5267
iné	-5268
ira	-5269
iso	-5270
iti	-5271
ius	-5272
jam	-5273
kra	-5274
log	-5275
mid	-5276
mon	-5277
mpt	-5278
nam	-5279
nov	-5280
oli	-5281
omi	-5282
oty	-5283
ppo	-5284
pre	-5285
rav	-5286
rif	-5287
uki	-5288
urd	-5289
vey	-5290
viv	-5291
xim	-5292
yal	-5293
zes	-5294
▁15	-5295
▁Ag	-5296
▁Ap	-5297
▁El	-5298
▁Fl	-5299
elf	-5300
eps	-5301
hib	-5302
ido	-5303
kum	-5304
▁21	-5305
▁Ho	-5306
▁Ja	-5307
▁ge	-5308
▁iP	-5309
▁je	-5310
▁nu	-5311
Conn	-5312
abor	-5313
acks	-5314
acon	-5315
ames	-5316
amic	-5317
arnt	-5318
atar	-5319
avir	-5320
clar	-5321
ctic	-5322
dict	-5323
dles	-5324
ecut	-5325
elly	-5326
ends	-5327
ener	-5328
enge	-5329
enth	-5330
ergy	-5331
fety	-5332
fire	-5333
gedy	-5334
gent	-5335
give	-5336
hest	-5337
hidi	-5338
hiko	-5339
hole	-5340
idel	-5341
iece	-5342
ient	-5343
iety	-5344
ikip	-5345
inem	-5346
inny	-5347
ique	-5348
isem	-5349
ites	-5350
ival	-5351
lect	-5352
line	-5353
mani	-5354
mpoo	-5355
oard	-5356
okka	-5357
onic	-5358
onto	-5359
onym	-5360
orld	-5361
osex	-5362
phan	-5363
pond	-5364
pper	-5365
riff	-5366
rise	-5367
rome	-5368
scri	-5369
ship	-5370
swer	-5371
tech	-5372
tles	-5373
uman	-5374
umor	-5375
unte	-5376
writ	-5377
yard	-5378
zens	-5379
▁194	-5380
▁23.	-5381
▁Ale	-5382
▁Ali	-5383
▁Aug	-5384
▁Cla	-5385
▁Con	-5386
▁Det	-5387
▁Dis	-5388
▁Dub	-5389
▁Few	-5390
▁Ham	-5391
▁Him	-5392
▁Isn	-5393
▁Its	-5394
▁Lib	-5395
▁Mad	-5396
▁Out	-5397
▁Pro	-5398
▁Sac	-5399
▁Er	-5400
That	-5401
gger	-5402
inks	-5403
mmer	-5404
wned	-5405
▁Kar	-5406
▁Oct	-5407
▁Rem	-5408
▁Ser	-5409
▁Spr	-5410
▁Sud	-5411
▁Suz	-5412
▁Tan	-5413
▁Too	-5414
▁Two	-5415
▁Wal	-5416
▁Yum	-5417
▁alt	-5418
▁ast	-5419
▁aud	-5420
▁bee	-5421
▁bik	-5422
▁bre	-5423
▁bun	-5424
▁del	-5425
▁din	-5426
▁dug	-5427
▁eld	-5428
▁emp	-5429
▁foc	-5430
▁god	-5431
▁hal	-5432
▁lat	-5433
▁laz	-5434
▁lit	-5435
▁mel	-5436
▁mix	-5437
▁mor	-5438
▁nap	-5439
▁non	-5440
▁ord	-5441
▁oxy	-5442
▁ped	-5443
▁poo	-5444
▁pra	-5445
▁row	-5446
▁sem	-5447
▁smo	-5448
▁sne	-5449
▁sow	-5450
▁tre	-5451
Thank	-5452
abase	-5453
abies	-5454
adays	-5455
ademy	-5456
ahili	-5457
aired	-5458
ample	-5459
antic	-5460
apped	-5461
aptop	-5462
aries	-5463
arket	-5464
asted	-5465
ategy	-5466
bling	-5467
clear	-5468
ctive	-5469
early	-5470
ebook	-5471
egard	-5472
eking	-5473
eless	-5474
erves	-5475
etite	-5476
gency	-5477
happy	-5478
hilip	-5479
hopin	-5480
iches	-5481
iders	-5482
iment	-5483
inema	-5484
inéad	-5485
isode	-5486
istic	-5487
istry	-5488
lared	-5489
licop	-5490
lying	-5491
obert	-5492
oming	-5493
onest	-5494
ongol	-5495
onted	-5496
orced	-5497
orthy	-5498
oshio	-5499
oused	-5500
place	-5501
ppers	-5502
rants	-5503
ratic	-5504
reoty	-5505
retty	-5506
steps	-5507
terly	-5508
thank	-5509
throp	-5510
ufact	-5511
urous	-5512
usted	-5513
wards	-5514
▁Bees	-5515
▁Calm	-5516
▁Damn	-5517
▁Fast	-5518
▁Fill	-5519
▁Fire	-5520
▁Foot	-5521
▁Hope	-5522
▁Inno	-5523
▁Inst	-5524
▁Janu	-5525
▁Kurd	-5526
▁LGBT	-5527
▁Less	-5528
▁Luck	-5529
▁Main	-5530
▁Mark	-5531
▁Miss	-5532
▁Mist	-5533
▁Okay	-5534
▁Over	-5535
▁Play	-5536
▁Read	-5537
▁Rock	-5538
▁Sept	-5539
▁Such	-5540
▁Swim	-5541
▁Talk	-5542
▁Taro	-5543
▁Tour	-5544
▁Trip	-5545
▁Ukra	-5546
▁Walk	-5547
▁Whom	-5548
▁Zeal	-5549
▁abus	-5550
▁acts	-5551
▁adop	-5552
▁agit	-5553
▁arch	-5554
▁army	-5555
▁beef	-5556
▁belt	-5557
▁bene	-5558
▁bush	-5559
▁cada	-5560
▁chat	-5561
▁chem	-5562
▁choo	-5563
▁cops	-5564
▁copy	-5565
▁craw	-5566
▁debt	-5567
▁deer	-5568
▁deny	-5569
▁dism	-5570
▁disp	-5571
▁edge	-5572
▁elim	-5573
▁exit	-5574
▁figh	-5575
▁file	-5576
▁firm	-5577
▁fits	-5578
▁fond	-5579
▁grey	-5580
▁hall	-5581
▁harv	-5582
▁heel	-5583
▁holy	-5584
▁imam	-5585
▁iron	-5586
▁jour	-5587
▁kilo	-5588
▁lady	-5589
▁lips	-5590
▁loan	-5591
▁maid	-5592
▁mall	-5593
▁mild	-5594
▁muff	-5595
▁none	-5596
▁nuts	-5597
▁onto	-5598
▁pens	-5599
▁pine	-5600
▁pond	-5601
▁porn	-5602
▁prey	-5603
▁purs	-5604
▁push	-5605
▁rate	-5606
▁rebu	-5607
▁rode	-5608
▁sake	-5609
▁secl	-5610
▁sees	-5611
▁shed	-5612
▁slim	-5613
▁soap	-5614
▁soft	-5615
▁sort	-5616
▁sout	-5617
▁surf	-5618
▁tend	-5619
▁toys	-5620
▁type	-5621
▁unto	-5622
▁vain	-5623
▁west	-5624
▁worn	-5625
▁zero	-5626
▁€30.	-5627
Connor	-5628
Please	-5629
achers	-5630
ainted	-5631
avirus	-5632
banian	-5633
chased	-5634
ecuted	-5635
ential	-5636
estyle	-5637
garian	-5638
ground	-5639
haired	-5640
headed	-5641
ialism	-5642
ichest	-5643
inking	-5644
iously	-5645
isions	-5646
istics	-5647
itched	-5648
landic	-5649
mptoms	-5650
reaked	-5651
redict	-5652
rolled	-5653
urgers	-5654
ursday	-5655
verage	-5656
▁1920.	-5657
▁2013.	-5658
▁Ahmad	-5659
▁Alice	-5660
▁Brian	-5661
▁Canad	-5662
▁Count	-5663
▁Democ	-5664
▁Gener	-5665
▁Guess	-5666
▁Harry	-5667
▁Hokka	-5668
▁Jaani	-5669
▁James	-5670
▁Larbi	-5671
▁Liber	-5672
▁March	-5673
▁Money	-5674
▁Press	-5675
▁Qaeda	-5676
▁Quick	-5677
▁Sally	-5678
▁Satan	-5679
▁Syria	-5680
▁Tango	-5681
▁Treat	-5682
▁Wikip	-5683
▁World	-5684
▁abuse	-5685
▁anime	-5686
▁armed	-5687
▁aspir	-5688
▁banks	-5689
▁bitch	-5690
▁brand	-5691
▁brick	-5692
▁burst	-5693
▁campa	-5694
▁charm	-5695
▁click	-5696
▁coron	-5697
▁crack	-5698
▁crash	-5699
▁crush	-5700
▁dealt	-5701
▁decor	-5702
▁demon	-5703
▁diary	-5704
▁discr	-5705
▁drama	-5706
▁dread	-5707
▁earns	-5708
▁empty	-5709
▁encla	-5710
▁error	-5711
▁evacu	-5712
▁fairy	-5713
▁feast	-5714
▁fence	-5715
▁flood	-5716
▁forth	-5717
▁gathe	-5718
▁goals	-5719
▁grown	-5720
▁grows	-5721
▁guide	-5722
▁hoped	-5723
▁humor	-5724
▁image	-5725
▁inher	-5726
▁jeans	-5727
▁loyal	-5728
▁mafia	-5729
▁magic	-5730
▁maybe	-5731
▁meals	-5732
▁media	-5733
▁meter	-5734
▁micro	-5735
▁mustn	-5736
▁naked	-5737
▁obser	-5738
▁pages	-5739
▁patho	-5740
▁press	-5741
▁pride	-5742
▁prize	-5743
▁purse	-5744
▁react	-5745
▁relie	-5746
▁renew	-5747
▁renov	-5748
▁rides	-5749
▁ridic	-5750
▁rings	-5751
▁risks	-5752
▁rocks	-5753
▁rumor	-5754
▁salad	-5755
▁scars	-5756
▁score	-5757
▁shelf	-5758
▁shook	-5759
▁silly	-5760
▁sites	-5761
▁spell	-5762
▁spoon	-5763
▁sport	-5764
▁staff	-5765
▁stamp	-5766
▁stoat	-5767
▁stock	-5768
▁stret	-5769
▁stuck	-5770
▁swept	-5771
▁sword	-5772
▁tasty	-5773
▁thick	-5774
▁third	-5775
▁towel	-5776
▁trash	-5777
▁value	-5778
▁vehic	-5779
▁venge	-5780
▁veter	-5781
▁vowed	-5782
▁wears	-5783
▁widow	-5784
Muiriel	-5785
angered	-5786
anslate	-5787
ativity	-5788
ception	-5789
ensable	-5790
eration	-5791
estival	-5792
ificant	-5793
ificial	-5794
inating	-5795
inguish	-5796
nership	-5797
ologist	-5798
olution	-5799
ometers	-5800
osexual	-5801
ounding	-5802
respond	-5803
rificed	-5804
scribed	-5805
ublican	-5806
ustomed	-5807
writing	-5808
▁Aleppo	-5809
▁Answer	-5810
▁Armani	-5811
▁August	-5812
▁Before	-5813
▁Choose	-5814
▁Chopin	-5815
▁Declar	-5816
▁Defend	-5817
▁Donald	-5818
▁During	-5819
▁Getter	-5820
▁Hitler	-5821
▁Hitomi	-5822
▁Louder	-5823
▁Madrid	-5824
▁Mariko	-5825
▁Mongol	-5826
▁Native	-5827
▁Nearly	-5828
▁Norway	-5829
▁Philip	-5830
▁Polish	-5831
▁Robert	-5832
▁Romans	-5833
▁Russia	-5834
▁Sinéad	-5835
▁Spring	-5836
▁Suzuki	-5837
▁Wolves	-5838
▁aboard	-5839
▁action	-5840
▁adding	-5841
▁altern	-5842
▁aspect	-5843
▁border	-5844
▁breath	-5845
▁buying	-5846
▁candle	-5847
▁cinema	-5848
▁circus	-5849
▁commer	-5850
▁cooper	-5851
▁copies	-5852
▁craved	-5853
▁depart	-5854
▁desper	-5855
▁detect	-5856
▁device	-5857
▁devout	-5858
▁dollar	-5859
▁doubts	-5860
▁dozens	-5861
▁dumped	-5862
▁eighty	-5863
▁eldest	-5864
▁energy	-5865
▁events	-5866
▁facing	-5867
▁figure	-5868
▁filing	-5869
▁flight	-5870
▁floors	-5871
▁fluent	-5872
▁flying	-5873
▁forces	-5874
▁frozen	-5875
▁fruits	-5876
▁genius	-5877
▁global	-5878
▁hammer	-5879
▁hearts	-5880
▁higher	-5881
▁hoping	-5882
▁hotels	-5883
▁humili	-5884
▁issues	-5885
▁jailed	-5886
▁landed	-5887
▁laptop	-5888
▁lately	-5889
▁laughs	-5890
▁learnt	-5891
▁lifted	-5892
▁loudly	-5893
▁lovely	-5894
▁loving	-5895
▁messed	-5896
▁meters	-5897
▁naught	-5898
▁needle	-5899
▁observ	-5900
▁orders	-5901
▁oxygen	-5902
▁packed	-5903
▁palace	-5904
▁papers	-5905
▁planes	-5906
▁plants	-5907
▁plates	-5908
▁posted	-5909
▁pounds	-5910
▁prayed	-5911
▁pronun	-5912
▁proved	-5913
▁pupils	-5914
▁racket	-5915
▁refuse	-5916
▁regain	-5917
▁regime	-5918
▁regist	-5919
▁remote	-5920
▁remove	-5921
▁rented	-5922
▁resist	-5923
▁resort	-5924
▁safety	-5925
▁screen	-5926
▁secure	-5927
▁sexual	-5928
▁signed	-5929
▁skiing	-5930
▁skinny	-5931
▁sleeps	-5932
▁snowed	-5933
▁solved	-5934
▁swords	-5935
▁tasted	-5936
▁territ	-5937
▁texted	-5938
▁tunnel	-5939
▁uncond	-5940
▁unless	-5941
▁values	-5942
▁verses	-5943
▁waiter	-5944
▁warmer	-5945
▁wasted	-5946
▁writer	-5947
▁yelled	-5948
aintance	-5949
fortunes	-5950
ironment	-5951
ological	-5952
stration	-5953
▁Actions	-5954
▁African	-5955
▁Britain	-5956
▁Chicken	-5957
▁Forgive	-5958
▁Fridays	-5959
▁Georgia	-5960
▁Islamic	-5961
▁January	-5962
▁October	-5963
▁Parents	-5964
▁Plastic	-5965
▁Sachiko	-5966
▁Society	-5967
▁Sundays	-5968
▁Swahili	-5969
▁Therein	-5970
▁Toronto	-5971
▁Tripoli	-5972
▁Washing	-5973
▁Zealand	-5974
▁abandon	-5975
▁achieve	-5976
▁alright	-5977
▁ancient	-5978
▁annoyed	-5979
▁applied	-5980
▁approve	-5981
▁artists	-5982
▁asshole	-5983
▁atheist	-5984
▁bastard	-5985
▁benefit	-5986
▁blessed	-5987
▁blocked	-5988
▁borders	-5989
▁bullied	-5990
▁butcher	-5991
▁cadaver	-5992
▁camping	-5993
▁captain	-5994
▁charged	-5995
▁charges	-5996
▁cheated	-5997
▁chicken	-5998
▁climate	-5999
▁closest	-6000
▁comment	-6001
▁complex	-6002
▁concern	-6003
▁conduct	-6004
▁consequ	-6005
▁convert	-6006
▁crossed	-6007
▁cutting	-6008
▁damaged	-6009
▁degrees	-6010
▁deprive	-6011
▁despise	-6012
▁despite	-6013
▁dragged	-6014
▁drowned	-6015
▁drugged	-6016
▁effects	-6017
▁elected	-6018
▁episode	-6019
▁exposed	-6020
▁extreme	-6021
▁falling	-6022
▁fastest	-6023
▁fasting	-6024
▁feather	-6025
▁fifteen	-6026
▁foolish	-6027
▁fortune	-6028
▁freaked	-6029
▁frisbee	-6030
▁futures	-6031
▁handbag	-6032
▁hardest	-6033
▁harmful	-6034
▁imposed	-6035
▁individ	-6036
▁islands	-6037
▁journey	-6038
▁laundry	-6039
▁liberal	-6040
▁mailing	-6041
▁manners	-6042
▁massive	-6043
▁mineral	-6044
▁mosques	-6045
▁musical	-6046
▁mystery	-6047
▁nuclear	-6048
▁officer	-6049
▁oneself	-6050
▁opening	-6051
▁opposes	-6052
▁parking	-6053
▁partner	-6054
▁planned	-6055
▁pockets	-6056
▁pressed	-6057
▁process	-6058
▁prosper	-6059
▁reality	-6060
▁rearing	-6061
▁respond	-6062
▁richest	-6063
▁ringing	-6064
▁robbing	-6065
▁schools	-6066
▁service	-6067
▁shaking	-6068
▁shampoo	-6069
▁sheriff	-6070
▁shooter	-6071
▁showing	-6072
▁signing	-6073
▁smelled	-6074
▁sneaked	-6075
▁snowman	-6076
▁sounded	-6077
▁sources	-6078
▁species	-6079
▁spotted	-6080
▁stepped	-6081
▁stuffed	-6082
▁sunrise	-6083
▁tattoos	-6084
▁tragedy	-6085
▁tripped	-6086
▁unhappy	-6087
▁useless	-6088
▁verdict	-6089
▁violate	-6090
▁volunte	-6091
▁warning	-6092
▁wasting	-6093
▁whoever	-6094
▁worship	-6095
egardless	-6096
▁Albanian	-6097
▁Anything	-6098
▁Football	-6099
▁Hokkaido	-6100
▁Language	-6101
▁Remember	-6102
▁Scotland	-6103
▁Shanghai	-6104
▁Swimming	-6105
▁Teachers	-6106
▁Terrific	-6107
▁Thursday	-6108
▁Tourists	-6109
▁agitated	-6110
▁airtight	-6111
▁ambition	-6112
▁appetite	-6113
▁approved	-6114
▁argument	-6115
▁attached	-6116
▁baptised	-6117
▁becoming	-6118
▁bedrooms	-6119
▁blockade	-6120
▁captured	-6121
▁careless	-6122
▁choosing	-6123
▁clapping	-6124
▁comments	-6125
▁communic	-6126
▁composed	-6127
▁contract	-6128
▁controls	-6129
▁creature	-6130
▁customer	-6131
▁darkness	-6132
▁database	-6133
▁deceived	-6134
▁declared	-6135
▁declined	-6136
▁despised	-6137
▁discount	-6138
▁diseases	-6139
▁divorced	-6140
▁document	-6141
▁economic	-6142
▁electric	-6143
▁embraced	-6144
▁engineer	-6145
▁enjoying	-6146
▁enormous	-6147
▁everyday	-6148
▁examined	-6149
▁executed	-6150
▁faithful	-6151
▁football	-6152
▁freezing	-6153
▁gathered	-6154
▁graduate	-6155
▁immature	-6156
▁indicted	-6157
▁injected	-6158
▁intended	-6159
▁interrup	-6160
▁invented	-6161
▁launched	-6162
▁lifetime	-6163
▁majority	-6164
▁military	-6165
▁nonsense	-6166
▁normally	-6167
▁notebook	-6168
▁nowadays	-6169
▁ordinary	-6170
▁outraged	-6171
▁overlook	-6172
▁patholog	-6173
▁persuade	-6174
▁pleasant	-6175
▁poisoned	-6176
▁position	-6177
▁positive	-6178
▁postpone	-6179
▁practise	-6180
▁precious	-6181
▁predator	-6182
▁presence	-6183
▁previous	-6184
▁produces	-6185
▁punching	-6186
▁rejected	-6187
▁relative	-6188
▁research	-6189
▁separate	-6190
▁shoulder	-6191
▁shouting	-6192
▁shutting	-6193
▁sickness	-6194
▁soldiers	-6195
▁speakers	-6196
▁specific	-6197
▁starting	-6198
▁stealing	-6199
▁stereoty	-6200
▁stranger	-6201
▁strategy	-6202
▁strongly	-6203
▁symptoms	-6204
▁talented	-6205
▁textbook	-6206
▁underest	-6207
▁weakness	-6208
thropology	-6209
▁Congratul	-6210
▁Generally	-6211
▁Hungarian	-6212
▁Icelandic	-6213
▁September	-6214
▁Seriously	-6215
▁Translate	-6216
▁Wikipedia	-6217
▁accepting	-6218
▁advantage	-6219
▁attending	-6220
▁cigarette	-6221
▁civilians	-6222
▁collected	-6223
▁communism	-6224
▁complains	-6225
▁comprises	-6226
▁confessed	-6227
▁conscious	-6228
▁contacted	-6229
▁customers	-6230
▁democracy	-6231
▁dependent	-6232
▁described	-6233
▁disappear	-6234
▁dismissed	-6235
▁distances	-6236
▁emergency	-6237
▁encourage	-6238
▁essential	-6239
▁factories	-6240
▁financial	-6241
▁footsteps	-6242
▁impressed	-6243
▁increased	-6244
▁innocence	-6245
▁lifestyle	-6246
▁magazines	-6247
▁overnight	-6248
▁passwords	-6249
▁political	-6250
▁published	-6251
▁purchased	-6252
▁reception	-6253
▁scientist	-6254
▁seclusion	-6255
▁secretary	-6256
▁seriously	-6257
▁standards	-6258
▁statement	-6259
▁strangely	-6260
▁strangers	-6261
▁superstar	-6262
▁talkative	-6263
▁thousands	-6264
▁tradition	-6265
▁unpredict	-6266
▁vengeance	-6267
▁wondering	-6268
▁accustomed	-6269
▁afterwards	-6270
▁approached	-6271
▁beneficial	-6272
▁challenges	-6273
▁characters	-6274
▁cigarettes	-6275
▁classmates	-6276
▁confronted	-6277
▁conscience	-6278
▁correspond	-6279
▁dependable	-6280
▁determined	-6281
▁directions	-6282
▁disappoint	-6283
▁endangered	-6284
▁experiment	-6285
▁extremists	-6286
▁fascinated	-6287
▁foreigners	-6288
▁homosexual	-6289
▁increasing	-6290
▁inevitable	-6291
▁kilometers	-6292
▁limitation	-6293
▁occupation	-6294
▁performing	-6295
▁pretending	-6296
▁principles	-6297
▁prostitute	-6298
▁protecting	-6299
▁recovering	-6300
▁regardless	-6301
▁ridiculous	-6302
▁sacrificed	-6303
▁subscribed	-6304
▁Declaration	-6305
▁accompanied	-6306
▁adventurous	-6307
▁colonialism	-6308
▁compliments	-6309
▁conditioner	-6310
▁coronavirus	-6311
▁development	-6312
▁disappoints	-6313
▁distinction	-6314
▁distinguish	-6315
▁handwriting	-6316
▁hardworking	-6317
▁imagination	-6318
▁necessarily	-6319
▁partnership	-6320
▁possibility	-6321
▁restaurants	-6322
▁significant	-6323
▁transferred	-6324
▁Christianity	-6325
▁acquaintance	-6326
▁constitution	-6327
▁construction	-6328
▁exaggerating	-6329
▁interference	-6330
▁organization	-6331
▁strawberries	-6332
▁translations	-6333
▁International	-6334
▁Unfortunately	-6335
▁automatically	-6336
▁extraordinary	-6337
▁indispensable	-6338
▁pronunciation	-6339
▁underestimate	-6340
▁Congratulations	-6341
▁unconditionally	-6342
avi	-6343
aws	-6344
bul	-6345
dka	-6346
evi	-6347
fel	-6348
hal	-6349
jid	-6350
jud	-6351
jug	-6352
kur	-6353
oku	-6354
oom	-6355
six	-6356
ubs	-6357
uce	-6358
ugu	-6359
uok	-6360
weg	-6361
win	-6362
zzy	-6363
▁12	-6364
▁22	-6365
▁31	-6366
▁50	-6367
▁60	-6368
▁80	-6369
▁Uy	-6370
...?	-6371
000.	-6372
____	-6373
ajid	-6374
audi	-6375
avid	-6376
bile	-6377
bled	-6378
chir	-6379
cret	-6380
eady	-6381
easy	-6382
elgi	-6383
espe	-6384
euts	-6385
gled	-6386
hama	-6387
harm	-6388
hett	-6389
iven	-6390
ixon	-6391
knob	-6392
kura	-6393
liam	-6394
lley	-6395
lymp	-6396
rani	-6397
rets	-6398
rics	-6399
ina	-6400
pir	-6401
rag	-6402
the	-6403
vil	-6404
▁IR	-6405
▁ko	-6406
Some	-6407
ctac	-6408
onat	-6409
pack	-6410
pill	-6411
roat	-6412
seas	-6413
stan	-6414
tier	-6415
toms	-6416
uals	-6417
uoka	-6418
uppy	-6419
vels	-6420
zant	-6421
▁...	-6422
▁106	-6423
▁174	-6424
▁18.	-6425
▁190	-6426
▁191	-6427
▁193	-6428
▁196	-6429
▁198	-6430
▁Abu	-6431
▁Air	-6432
▁Bej	-6433
▁Bye	-6434
▁Exp	-6435
▁Fat	-6436
▁Gas	-6437
▁Haw	-6438
▁Hel	-6439
▁Huh	-6440
▁IRC	-6441
▁Ign	-6442
▁Joe	-6443
▁Law	-6444
▁Leb	-6445
▁Lyn	-6446
▁Mil	-6447
▁Sea	-6448
▁Six	-6449
▁Sur	-6450
▁ack	-6451
▁cru	-6452
▁cyn	-6453
▁fog	-6454
▁kar	-6455
▁rad	-6456
▁sip	-6457
▁sir	-6458
,000.	-6459
Deuts	-6460
abled	-6461
ablet	-6462
agues	-6463
alley	-6464
amada	-6465
amids	-6466
ancis	-6467
apple	-6468
arwin	-6469
athiz	-6470
attle	-6471
aviar	-6472
aykum	-6473
belie	-6474
celed	-6475
chers	-6476
class	-6477
dened	-6478
elcha	-6479
erlin	-6480
ernly	-6481
esome	-6482
etern	-6483
halif	-6484
hetti	-6485
iffel	-6486
ilege	-6487
inted	-6488
itzer	-6489
jamin	-6490
kirts	-6491
lands	-6492
lemen	-6493
lobal	-6494
ohama	-6495
ommun	-6496
onomy	-6497
orocc	-6498
owing	-6499
4.	-6500
He	-6501
lc	-6502
ölc	-6503
▁MY	-6504
isor	-6505
pton	-6506
quis	-6507
rial	-6508
velt	-6509
vert	-6510
walk	-6511
▁Hat	-6512
▁Hom	-6513
▁Men	-6514
▁Mid	-6515
▁Ost	-6516
▁Pus	-6517
▁Yid	-6518
▁atm	-6519
▁sof	-6520
▁thy	-6521
enant	-6522
ologn	-6523
outer	-6524
peare	-6525
raise	-6526
ramar	-6527
rator	-6528
rilli	-6529
roken	-6530
sibly	-6531
storm	-6532
sules	-6533
ugees	-6534
ulent	-6535
ulner	-6536
umbed	-6537
ungry	-6538
uplic	-6539
urbed	-6540
ushes	-6541
utual	-6542
veret	-6543
xcuse	-6544
ximum	-6545
yield	-6546
yrics	-6547
ölcse	-6548
▁3000	-6549
▁911.	-6550
▁Andy	-6551
▁Astr	-6552
▁Beha	-6553
▁Beja	-6554
▁Budd	-6555
▁Carl	-6556
▁Cost	-6557
▁Dark	-6558
▁Dead	-6559
▁Finn	-6560
▁Grac	-6561
▁Holy	-6562
▁Hung	-6563
▁Judy	-6564
▁July	-6565
▁Lily	-6566
▁Lock	-6567
▁Lots	-6568
▁Lynn	-6569
▁Math	-6570
▁Merc	-6571
▁Omid	-6572
▁Peek	-6573
▁Pray	-6574
▁Real	-6575
▁Shiz	-6576
▁Sout	-6577
▁Thai	-6578
▁Tues	-6579
▁Uygh	-6580
▁Walm	-6581
▁Wash	-6582
▁Yeah	-6583
▁Ying	-6584
▁Zain	-6585
▁Zion	-6586
▁____	-6587
▁bags	-6588
▁bann	-6589
▁blew	-6590
▁blog	-6591
▁bomb	-6592
▁boun	-6593
▁bury	-6594
▁calm	-6595
▁cher	-6596
▁chol	-6597
▁code	-6598
▁conn	-6599
7.	-6600
BC	-6601
fr	-6602
pa	-6603
afa	-6604
boo	-6605
gle	-6606
how	-6607
raw	-6608
ril	-6609
tar	-6610
usk	-6611
▁1,	-6612
fere	-6613
heid	-6614
omas	-6615
usse	-6616
wing	-6617
▁Mis	-6618
▁Num	-6619
▁Squ	-6620
▁Und	-6621
▁Web	-6622
▁Yok	-6623
▁dom	-6624
▁joy	-6625
▁obt	-6626
▁pat	-6627
becue	-6628
escue	-6629
heard	-6630
illot	-6631
iring	-6632
isies	-6633
mpire	-6634
ouses	-6635
reate	-6636
▁Snow	-6637
▁Yumi	-6638
▁bees	-6639
▁cope	-6640
▁corp	-6641
▁cows	-6642
▁deli	-6643
▁dusk	-6644
▁eleg	-6645
▁espe	-6646
▁eyeb	-6647
▁flat	-6648
▁flir	-6649
▁gray	-6650
▁hala	-6651
▁halt	-6652
▁hats	-6653
▁heat	-6654
▁hunt	-6655
▁junk	-6656
▁laws	-6657
▁lets	-6658
▁loss	-6659
▁mile	-6660
▁nods	-6661
▁noob	-6662
▁obed	-6663
▁papa	-6664
▁rape	-6665
▁reve	-6666
▁rise	-6667
▁rope	-6668
▁ruth	-6669
▁silk	-6670
▁soul	-6671
▁synd	-6672
▁trib	-6673
▁tune	-6674
▁vacc	-6675
▁verb	-6676
▁visa	-6677
▁whip	-6678
▁wins	-6679
▁zone	-6680
Excuse	-6681
andria	-6682
anting	-6683
arctic	-6684
atives	-6685
believ	-6686
cember	-6687
chland	-6688
elgium	-6689
eviate	-6690
gender	-6691
giving	-6692
halifa	-6693
hannel	-6694
hipped	-6695
hungry	-6696
icipal	-6697
idents	-6698
idious	-6699
0%	-6700
0,	-6701
Is	-6702
YR	-6703
oe	-6704
tw	-6705
ww	-6706
des	-6707
eds	-6708
esp	-6709
fly	-6710
pow	-6711
sha	-6712
two	-6713
▁7.	-6714
▁od	-6715
▁ut	-6716
alse	-6717
erve	-6718
iger	-6719
ills	-6720
okes	-6721
oyot	-6722
sion	-6723
▁90%	-6724
▁BYR	-6725
▁agg	-6726
▁bal	-6727
▁mun	-6728
angar	-6729
arter	-6730
erals	-6731
laced	-6732
oyota	-6733
veill	-6734
▁Algi	-6735
▁Hong	-6736
▁Rear	-6737
▁aven	-6738
▁duck	-6739
▁grat	-6740
▁quot	-6741
▁trem	-6742
▁unus	-6743
▁whis	-6744
ipping	-6745
ivorce	-6746
lifted	-6747
locked	-6748
lution	-6749
lympic	-6750
making	-6751
manent	-6752
mented	-6753
ndered	-6754
ocated	-6755
ologne	-6756
omenon	-6757
onents	-6758
onesia	-6759
oodles	-6760
ophile	-6761
oriety	-6762
orocco	-6763
otting	-6764
ottoms	-6765
ounced	-6766
pretty	-6767
ptions	-6768
quakes	-6769
rarily	-6770
rative	-6771
rators	-6772
riches	-6773
rifice	-6774
roatia	-6775
screen	-6776
ternal	-6777
ubator	-6778
uggage	-6779
uguese	-6780
uments	-6781
urrani	-6782
velope	-6783
wegian	-6784
ölcsey	-6785
▁1939.	-6786
▁1994.	-6787
▁1996.	-6788
▁2018.	-6789
▁About	-6790
▁Again	-6791
▁Allow	-6792
▁Beaut	-6793
▁Being	-6794
▁Books	-6795
▁Buddh	-6796
▁Carol	-6797
▁Catho	-6798
▁Cathy	-6799
6,	-6800
At	-6801
IS	-6802
My	-6803
Sh	-6804
So	-6805
ks	-6806
qa	-6807
rs	-6808
ops	-6809
org	-6810
rig	-6811
Best	-6812
idia	-6813
ithm	-6814
stig	-6815
vage	-6816
▁Bed	-6817
▁Lat	-6818
▁Lol	-6819
▁Net	-6820
▁Spe	-6821
▁oct	-6822
▁rip	-6823
▁rug	-6824
eping	-6825
icard	-6826
icing	-6827
orary	-6828
owned	-6829
▁Cats	-6830
▁Cops	-6831
▁Dude	-6832
▁Hang	-6833
▁Live	-6834
▁envy	-6835
▁gent	-6836
▁rude	-6837
▁sank	-6838
▁tail	-6839
▁thri	-6840
broken	-6841
icardo	-6842
inging	-6843
utable	-6844
▁April	-6845
▁Bedou	-6846
▁Cheer	-6847
▁Chris	-6848
▁David	-6849
▁Death	-6850
▁Doing	-6851
▁Drink	-6852
▁Dubai	-6853
▁First	-6854
▁Helen	-6855
▁Homer	-6856
▁House	-6857
▁Jones	-6858
▁Laugh	-6859
▁Libya	-6860
▁Mainz	-6861
▁Majid	-6862
▁Merry	-6863
▁Nixon	-6864
▁Party	-6865
▁Place	-6866
▁Qatar	-6867
▁Rocky	-6868
▁Roman	-6869
▁Roose	-6870
▁Saudi	-6871
▁Seven	-6872
▁Sleep	-6873
▁Study	-6874
▁Tower	-6875
▁Tracy	-6876
▁Trang	-6877
▁Under	-6878
▁White	-6879
▁Words	-6880
▁Wrong	-6881
▁Yidir	-6882
▁_____	-6883
▁ached	-6884
▁activ	-6885
▁aimed	-6886
▁airpl	-6887
▁alias	-6888
▁alley	-6889
▁antip	-6890
▁areas	-6891
▁ashes	-6892
▁baked	-6893
▁baker	-6894
▁bench	-6895
▁boxes	-6896
▁breed	-6897
▁broad	-6898
▁caged	-6899
ye	-6900
erb	-6901
fox	-6902
kin	-6903
lan	-6904
sem	-6905
▁35	-6906
▁ID	-6907
▁Iv	-6908
▁Mi	-6909
▁SU	-6910
▁ce	-6911
Well	-6912
ades	-6913
anon	-6914
asin	-6915
assy	-6916
omit	-6917
▁Bou	-6918
▁SUV	-6919
▁Sam	-6920
▁San	-6921
▁Sus	-6922
▁der	-6923
▁lid	-6924
▁sou	-6925
▁wig	-6926
anite	-6927
basin	-6928
being	-6929
enger	-6930
erson	-6931
iable	-6932
order	-6933
ronic	-6934
umber	-6935
venir	-6936
▁Alex	-6937
▁Jump	-6938
▁cres	-6939
▁owes	-6940
▁poss	-6941
▁pure	-6942
▁ties	-6943
▁tiff	-6944
Americ	-6945
ership	-6946
rowser	-6947
▁While	-6948
▁alter	-6949
▁cared	-6950
▁cheat	-6951
▁chest	-6952
▁claim	-6953
▁cloth	-6954
▁cloud	-6955
▁clung	-6956
▁coins	-6957
▁conte	-6958
▁costs	-6959
▁craft	-6960
▁creed	-6961
▁crook	-6962
▁crowd	-6963
▁decay	-6964
▁decre	-6965
▁delay	-6966
▁diagn	-6967
▁dizzy	-6968
▁drawn	-6969
▁dwell	-6970
▁edges	-6971
▁elder	-6972
▁essay	-6973
▁etern	-6974
▁evils	-6975
▁exams	-6976
▁exhib	-6977
▁eying	-6978
▁faced	-6979
▁falls	-6980
▁false	-6981
▁fears	-6982
▁flash	-6983
▁focus	-6984
▁foods	-6985
▁fully	-6986
▁giant	-6987
▁grade	-6988
▁grape	-6989
▁guard	-6990
▁guilt	-6991
▁haste	-6992
▁heads	-6993
▁helps	-6994
▁hills	-6995
▁holes	-6996
▁horiz	-6997
▁ident	-6998
▁iftar	-6999
ls	-7000
od	-7001
?!"	-7002
alu	-7003
cra	-7004
fle	-7005
ids	-7006
ify	-7007
kel	-7008
raq	-7009
▁Ku	-7010
▁om	-7011
amed	-7012
anch	-7013
aste	-7014
dist	-7015
othe	-7016
otic	-7017
ucky	-7018
▁Ito	-7019
▁Ted	-7020
▁Tra	-7021
▁lab	-7022
▁sam	-7023
▁tid	-7024
adium	-7025
arent	-7026
bered	-7027
ckled	-7028
craft	-7029
denly	-7030
endar	-7031
ewell	-7032
iting	-7033
▁Iraq	-7034
▁Kong	-7035
▁Sent	-7036
▁bone	-7037
▁exha	-7038
▁knit	-7039
▁pimp	-7040
▁qual	-7041
▁shit	-7042
▁stat	-7043
▁tear	-7044
erable	-7045
idency	-7046
ources	-7047
ragile	-7048
▁Erkel	-7049
▁Smile	-7050
▁Sport	-7051
▁banqu	-7052
▁crude	-7053
▁faces	-7054
▁ignor	-7055
▁immig	-7056
▁impol	-7057
▁irrit	-7058
▁jelly	-7059
▁joint	-7060
▁jokes	-7061
▁kills	-7062
▁koala	-7063
▁lands	-7064
▁leads	-7065
▁lemon	-7066
▁lieut	-7067
▁loser	-7068
▁maint	-7069
▁meets	-7070
▁mercy	-7071
▁minor	-7072
▁mistr	-7073
▁mushy	-7074
▁nails	-7075
▁niece	-7076
▁ninet	-7077
▁obliv	-7078
▁occas	-7079
▁octop	-7080
▁outer	-7081
▁overc	-7082
▁owned	-7083
▁panic	-7084
▁parts	-7085
▁perse	-7086
▁pharm	-7087
▁prank	-7088
▁psych	-7089
▁pupil	-7090
▁puppy	-7091
▁quote	-7092
▁rapid	-7093
▁raven	-7094
▁recon	-7095
▁regul	-7096
▁rifle	-7097
▁robot	-7098
▁salon	-7099
And	-7100
lap	-7101
ths	-7102
tic	-7103
▁40	-7104
▁PM	-7105
They	-7106
belt	-7107
chan	-7108
food	-7109
▁Col	-7110
▁Del	-7111
▁Fry	-7112
▁Kob	-7113
▁Meg	-7114
▁Thr	-7115
▁mum	-7116
▁pad	-7117
▁pan	-7118
estic	-7119
inson	-7120
oured	-7121
range	-7122
store	-7123
verty	-7124
▁City	-7125
▁Cong	-7126
▁Kobe	-7127
▁Lack	-7128
▁Nice	-7129
▁atom	-7130
▁comb	-7131
▁dear	-7132
▁fake	-7133
▁hamb	-7134
▁lame	-7135
▁lean	-7136
▁pets	-7137
▁stab	-7138
▁wide	-7139
Salamu	-7140
atable	-7141
erpill	-7142
ration	-7143
▁Jimmy	-7144
▁North	-7145
▁South	-7146
▁Torah	-7147
▁brush	-7148
▁bunny	-7149
▁flock	-7150
▁melts	-7151
▁moves	-7152
▁queen	-7153
▁scarf	-7154
▁shade	-7155
▁shops	-7156
▁shown	-7157
▁skirt	-7158
▁sland	-7159
▁smelt	-7160
▁snuck	-7161
▁sober	-7162
▁solar	-7163
▁south	-7164
▁spade	-7165
▁spoil	-7166
▁squir	-7167
▁stain	-7168
▁stays	-7169
▁stumb	-7170
▁subsc	-7171
▁subst	-7172
▁suits	-7173
▁sushi	-7174
▁swift	-7175
▁tales	-7176
▁teams	-7177
▁tempt	-7178
▁tenth	-7179
▁terms	-7180
▁tests	-7181
▁thirt	-7182
▁tiger	-7183
▁tools	-7184
▁track	-7185
▁trial	-7186
▁tries	-7187
▁twent	-7188
▁ultim	-7189
▁usual	-7190
▁verge	-7191
▁vomit	-7192
▁wheat	-7193
▁withd	-7194
▁woods	-7195
Nothing	-7196
aghetti	-7197
ancisco	-7198
andered	-7199
▁“	-7200
ssi	-7201
Yeah	-7202
aine	-7203
ares	-7204
ilor	-7205
imid	-7206
mind	-7207
oses	-7208
utch	-7209
▁Gay	-7210
▁Mal	-7211
▁Nar	-7212
▁Tel	-7213
▁pig	-7214
▁rom	-7215
▁unb	-7216
ateur	-7217
inate	-7218
itate	-7219
iture	-7220
▁Drop	-7221
▁Fish	-7222
▁Lear	-7223
▁Mart	-7224
▁dart	-7225
▁liqu	-7226
▁outb	-7227
▁outs	-7228
▁perf	-7229
▁pled	-7230
▁plus	-7231
▁shoe	-7232
▁sole	-7233
▁unin	-7234
▁vice	-7235
graphy	-7236
harged	-7237
ishing	-7238
minded	-7239
resent	-7240
▁Fight	-7241
▁Ichir	-7242
▁Learn	-7243
▁Light	-7244
▁Pract	-7245
▁basis	-7246
▁brain	-7247
▁broth	-7248
▁burnt	-7249
▁conce	-7250
▁concl	-7251
▁euros	-7252
▁fools	-7253
▁gossi	-7254
▁plain	-7255
▁snack	-7256
▁steps	-7257
▁timid	-7258
▁union	-7259
▁vodka	-7260
athized	-7261
bedroom	-7262
cedures	-7263
cessity	-7264
elchair	-7265
ensions	-7266
ervisor	-7267
esterol	-7268
gusting	-7269
ictions	-7270
igraphy	-7271
iminate	-7272
inarily	-7273
irstyle	-7274
itement	-7275
jection	-7276
leashed	-7277
lighted	-7278
onsider	-7279
osphere	-7280
parable	-7281
pleased	-7282
powered	-7283
ributed	-7284
riguing	-7285
rolling	-7286
section	-7287
stanbul	-7288
tenance	-7289
tically	-7290
versely	-7291
yramids	-7292
▁Argent	-7293
▁Behave	-7294
▁Bejaia	-7295
▁Brilli	-7296
▁Byzant	-7297
▁Cancer	-7298
▁Carlos	-7299
ape	-7300
orp	-7301
ieth	-7302
ntil	-7303
oran	-7304
udes	-7305
vard	-7306
▁que	-7307
▁via	-7308
apers	-7309
ardon	-7310
brush	-7311
iance	-7312
orted	-7313
sters	-7314
▁Free	-7315
▁Port	-7316
▁Wipe	-7317
▁cock	-7318
▁coin	-7319
▁dick	-7320
▁hang	-7321
▁kidn	-7322
▁moan	-7323
▁nick	-7324
▁oven	-7325
▁pear	-7326
▁phen	-7327
▁quiz	-7328
▁riot	-7329
▁roll	-7330
▁stew	-7331
▁tape	-7332
▁tide	-7333
▁ward	-7334
ortion	-7335
riends	-7336
▁India	-7337
▁Koran	-7338
▁Santa	-7339
▁Until	-7340
▁abide	-7341
▁prick	-7342
▁queue	-7343
▁rainy	-7344
▁revel	-7345
▁scorp	-7346
▁theft	-7347
▁vital	-7348
▁walls	-7349
factory	-7350
▁Berlin	-7351
▁Commun	-7352
▁Contin	-7353
▁Cooper	-7354
▁Credit	-7355
▁Darwin	-7356
▁Eiffel	-7357
▁Empire	-7358
▁Hamlet	-7359
▁Health	-7360
▁Honest	-7361
▁Ichiro	-7362
▁Ignore	-7363
▁Indeed	-7364
▁Indian	-7365
▁Kabyle	-7366
▁Lesson	-7367
▁Maryam	-7368
▁Praise	-7369
▁Rescue	-7370
▁Shakes	-7371
▁Spread	-7372
▁Street	-7373
▁Stress	-7374
▁Tanaka	-7375
▁Thomas	-7376
▁Toshio	-7377
▁Toyota	-7378
▁Turkey	-7379
▁Waking	-7380
▁Wester	-7381
▁Within	-7382
▁Yamada	-7383
▁acknow	-7384
▁adjust	-7385
▁adults	-7386
▁advise	-7387
▁angels	-7388
▁anonym	-7389
▁appeal	-7390
▁associ	-7391
▁atomic	-7392
▁babies	-7393
▁beacon	-7394
▁beaten	-7395
▁behave	-7396
▁biking	-7397
▁bitten	-7398
▁booked	-7399
How	-7400
abi	-7401
▁1.	-7402
This	-7403
atue	-7404
down	-7405
eked	-7406
enny	-7407
ftar	-7408
izes	-7409
uous	-7410
wise	-7411
▁Ins	-7412
▁ens	-7413
▁tag	-7414
aving	-7415
water	-7416
▁Fine	-7417
▁Star	-7418
▁Sure	-7419
▁brac	-7420
▁dial	-7421
▁fame	-7422
▁furn	-7423
▁lion	-7424
▁pack	-7425
▁scar	-7426
▁trop	-7427
arried	-7428
limate	-7429
▁Armen	-7430
▁Honey	-7431
▁Human	-7432
▁Iftar	-7433
▁Skura	-7434
▁Start	-7435
▁actor	-7436
▁dated	-7437
▁dried	-7438
▁ideal	-7439
▁lingu	-7440
▁ought	-7441
▁prior	-7442
▁scree	-7443
▁spare	-7444
▁sucks	-7445
astated	-7446
▁Anthem	-7447
▁Arabia	-7448
▁Attack	-7449
▁Statue	-7450
▁Ticket	-7451
▁Zainab	-7452
▁branch	-7453
▁bribes	-7454
▁bullet	-7455
▁button	-7456
▁campus	-7457
▁cancel	-7458
▁circle	-7459
▁circum	-7460
▁cleans	-7461
▁closes	-7462
▁colors	-7463
▁colour	-7464
▁compan	-7465
▁convey	-7466
▁cookie	-7467
▁corpor	-7468
▁counts	-7469
▁cowork	-7470
▁crimes	-7471
▁deadly	-7472
▁deaths	-7473
▁desert	-7474
▁design	-7475
▁divide	-7476
▁duplic	-7477
▁edible	-7478
▁eleven	-7479
▁empire	-7480
▁engage	-7481
▁estate	-7482
▁exempt	-7483
▁exists	-7484
▁expert	-7485
▁fairly	-7486
▁fallen	-7487
▁fights	-7488
▁filthy	-7489
▁fixing	-7490
▁flames	-7491
▁folder	-7492
▁fooled	-7493
▁forest	-7494
▁formal	-7495
▁formed	-7496
▁fourth	-7497
▁freeze	-7498
▁gender	-7499
▁glance	-7500
▁guests	-7501
▁habits	-7502
▁handed	-7503
▁hatred	-7504
▁height	-7505
▁highly	-7506
▁hijabi	-7507
▁hosted	-7508
▁hunter	-7509
▁ignore	-7510
▁income	-7511
▁insect	-7512
▁insult	-7513
▁interc	-7514
▁ironed	-7515
▁itches	-7516
▁jewell	-7517
▁kangar	-7518
▁latter	-7519
▁levels	-7520
▁liking	-7521
▁lyrics	-7522
▁malice	-7523
▁misery	-7524
▁mobile	-7525
▁monkey	-7526
▁motion	-7527
▁multip	-7528
▁mutual	-7529
▁nearby	-7530
▁nearer	-7531
▁nightm	-7532
▁ninety	-7533
▁notion	-7534
▁novels	-7535
▁nurses	-7536
▁occupy	-7537
▁oldest	-7538
▁online	-7539
▁orphan	-7540
▁pepper	-7541
▁perish	-7542
▁perpet	-7543
▁petrol	-7544
▁phrase	-7545
▁points	-7546
▁poured	-7547
▁preced	-7548
▁profit	-7549
▁prophe	-7550
▁racism	-7551
▁rarely	-7552
▁reared	-7553
▁refres	-7554
▁reject	-7555
▁relief	-7556
▁remedy	-7557
▁rescue	-7558
▁resent	-7559
▁rising	-7560
▁robbed	-7561
▁rooted	-7562
▁rotten	-7563
▁safely	-7564
▁sailor	-7565
▁savage	-7566
▁search	-7567
▁shaved	-7568
▁shoots	-7569
▁shores	-7570
▁signal	-7571
▁singly	-7572
▁slight	-7573
▁smoked	-7574
▁sneeze	-7575
▁source	-7576
▁spoilt	-7577
▁spouse	-7578
▁square	-7579
▁squirt	-7580
▁stairs	-7581
▁stated	-7582
▁status	-7583
▁steady	-7584
▁stinks	-7585
▁stoats	-7586
▁stores	-7587
▁struck	-7588
▁superm	-7589
▁sweets	-7590
▁tablet	-7591
▁talent	-7592
▁thrown	-7593
▁tomcat	-7594
▁transm	-7595
▁treats	-7596
▁trusts	-7597
▁typing	-7598
▁unable	-7599
▁unbear	-7600
▁uncons	-7601
▁uneasy	-7602
▁unique	-7603
▁united	-7604
▁upside	-7605
▁valley	-7606
▁visits	-7607
▁volley	-7608
▁volume	-7609
▁vulner	-7610
▁waving	-7611
▁weapon	-7612
▁weighs	-7613
▁wished	-7614
▁wooden	-7615
▁worker	-7616
▁worthy	-7617
American	-7618
centered	-7619
cription	-7620
ctacular	-7621
ervative	-7622
licopter	-7623
peakable	-7624
rogation	-7625
sounding	-7626
stigious	-7627
stitutes	-7628
volution	-7629
yielding	-7630
▁Airport	-7631
▁Alaykum	-7632
▁Algiers	-7633
▁Alright	-7634
▁Atlanta	-7635
▁Belgium	-7636
▁Between	-7637
▁Blessed	-7638
▁Bottoms	-7639
▁Channel	-7640
▁Clearly	-7641
▁Cologne	-7642
▁Compare	-7643
▁Control	-7644
▁Country	-7645
▁Croatia	-7646
▁Doctors	-7647
▁Durrani	-7648
▁Eternal	-7649
▁Finding	-7650
▁Firefox	-7651
▁Frankly	-7652
▁Germans	-7653
▁Goodbye	-7654
▁Grandma	-7655
▁Harvard	-7656
▁Hungary	-7657
▁Instead	-7658
▁Khalifa	-7659
▁Knowing	-7660
▁Kölcsey	-7661
▁Lebanon	-7662
▁Liberty	-7663
▁Luckily	-7664
▁Morocco	-7665
▁Mustafa	-7666
▁Nations	-7667
▁Neither	-7668
▁Numidia	-7669
▁Olympic	-7670
▁Pleased	-7671
▁Revenge	-7672
▁Ricardo	-7673
▁Success	-7674
▁Switzer	-7675
▁Tuesday	-7676
▁Ukraine	-7677
▁Walmart	-7678
▁Western	-7679
▁Written	-7680
▁academy	-7681
▁adopted	-7682
▁affairs	-7683
▁affects	-7684
▁altered	-7685
▁amateur	-7686
▁amongst	-7687
▁anytime	-7688
▁appears	-7689
▁archite	-7690
▁assumed	-7691
▁assured	-7692
▁average	-7693
▁awesome	-7694
▁balance	-7695
▁bandage	-7696
▁banquet	-7697
▁bedtime	-7698
▁begging	-7699
▁beloved	-7700
▁besides	-7701
▁blanket	-7702
▁blasted	-7703
▁bottles	-7704
▁browser	-7705
▁brushes	-7706
▁candles	-7707
▁capture	-7708
▁cartoon	-7709
▁cleaner	-7710
▁command	-7711
▁consult	-7712
▁content	-7713
▁contest	-7714
▁context	-7715
▁corrupt	-7716
▁counted	-7717
▁crooked	-7718
▁customs	-7719
▁daisies	-7720
▁darkens	-7721
▁deafing	-7722
▁dealing	-7723
▁deepest	-7724
▁defense	-7725
▁defined	-7726
▁demands	-7727
▁dentist	-7728
▁destiny	-7729
▁diamond	-7730
▁differs	-7731
▁dipping	-7732
▁disturb	-7733
▁divided	-7734
▁economy	-7735
▁element	-7736
▁embassy	-7737
▁embrace	-7738
▁enclave	-7739
▁english	-7740
▁examine	-7741
▁existed	-7742
▁experts	-7743
▁factors	-7744
▁fainted	-7745
▁fascist	-7746
▁fighter	-7747
▁figures	-7748
▁finding	-7749
▁fingers	-7750
▁fluency	-7751
▁forgave	-7752
▁fragile	-7753
▁freezes	-7754
▁fulfill	-7755
▁funeral	-7756
▁furious	-7757
▁glanced	-7758
▁goodbye	-7759
▁granted	-7760
▁greater	-7761
▁guillot	-7762
▁handler	-7763
▁harvest	-7764
▁hastily	-7765
▁heading	-7766
▁helpful	-7767
▁highest	-7768
▁honesty	-7769
▁horizon	-7770
▁hostile	-7771
▁hurried	-7772
▁immoral	-7773
▁impacts	-7774
▁imports	-7775
▁impress	-7776
▁infidel	-7777
▁insults	-7778
▁invaded	-7779
▁kingdom	-7780
▁leaking	-7781
▁longest	-7782
▁luggage	-7783
▁mansion	-7784
▁massage	-7785
▁maximum	-7786
▁measure	-7787
▁minding	-7788
▁monster	-7789
▁muffins	-7790
▁naughty	-7791
▁noodles	-7792
▁octopus	-7793
▁operate	-7794
▁oppress	-7795
▁options	-7796
▁painter	-7797
▁parliam	-7798
▁parties	-7799
▁passing	-7800
▁peeking	-7801
▁pencils	-7802
▁percept	-7803
▁phrased	-7804
▁planted	-7805
▁plumber	-7806
▁pointed	-7807
▁poorest	-7808
▁poverty	-7809
▁prefers	-7810
▁prepare	-7811
▁privacy	-7812
▁produce	-7813
▁profile	-7814
▁promote	-7815
▁proport	-7816
▁provide	-7817
▁rapidly	-7818
▁rebuild	-7819
▁records	-7820
▁regards	-7821
▁release	-7822
▁relieve	-7823
▁remains	-7824
▁remarks	-7825
▁removed	-7826
▁renewed	-7827
▁resting	-7828
▁rolling	-7829
▁roughly	-7830
▁sadness	-7831
▁samples	-7832
▁scolded	-7833
▁scratch	-7834
▁secrets	-7835
▁seeking	-7836
▁shortly	-7837
▁shotgun	-7838
▁silence	-7839
▁slumped	-7840
▁soaking	-7841
▁soldier	-7842
▁solving	-7843
▁somehow	-7844
▁spiders	-7845
▁spouses	-7846
▁stabbed	-7847
▁stadium	-7848
▁stalker	-7849
▁staring	-7850
▁sternly	-7851
▁stunned	-7852
▁sweater	-7853
▁temples	-7854
▁texting	-7855
▁thereby	-7856
▁threats	-7857
▁tightly	-7858
▁touched	-7859
▁towards	-7860
▁trading	-7861
▁trigger	-7862
▁tunnels	-7863
▁turning	-7864
▁typical	-7865
▁unknown	-7866
▁version	-7867
▁veteran	-7868
▁visible	-7869
▁wealthy	-7870
▁whipped	-7871
▁widened	-7872
▁widower	-7873
Somewhere	-7874
aborative	-7875
antically	-7876
erpillars	-7877
hematical	-7878
mpossible	-7879
ramarital	-7880
veillance	-7881
▁Administ	-7882
▁Bedouins	-7883
▁Benjamin	-7884
▁Buddhist	-7885
▁Catholic	-7886
▁Congress	-7887
▁Continue	-7888
▁December	-7889
▁Festival	-7890
▁Fighting	-7891
▁Georgian	-7892
▁Gracious	-7893
▁Merciful	-7894
▁Mistakes	-7895
▁Moreover	-7896
▁	-7897
e	-7898
a	-7899
o	-7900
t	-7901
i	-7902
s	-7903
n	-7904
r	-7905
h	-7906
l	-7907
d	-7908
.	-7909
m	-7910
u	-7911
y	-7912
c	-7913
w	-7914
g	-7915
f	-7916
p	-7917
b	-7918
k	-7919
I	-7920
v	-7921
'	-7922
S	-7923
T	-7924
?	-7925
W	-7926
,	-7927
L	-7928
H	-7929
M	-7930
Y	-7931
A	-7932
D	-7933
F	-7934
x	-7935
!	-7936
C	-7937
j	-7938
B	-7939
E	-7940
"	-7941
q	-7942
P	-7943
N	-7944
J	-7945
G	-7946
z	-7947
-	-7948
O	-7949
0	-7950
K	-7951
R	-7952
1	-7953
V	-7954
2	-7955
U	-7956
9	-7957
:	-7958
3	-7959
6	-7960
;	-7961
8	-7962
4	-7963
5	-7964
Q	-7965
7	-7966
Z	-7967
_	-7968
’	-7969
—	-7970
é	-7971
–	-7972
%	-7973
/	-7974
€	-7975
X	-7976
”	-7977
(	-7978
)	-7979
ö	-7980
ü	-7981
“	-7982
$	-7983
*	-7984
«	-7985
»	-7986
á	-7987
è	-7988
í	-7989
İ	-7990
а	-7991
с	-7992
→	-7993
☭	-7994
あ	-7995
